{
  "version": "1.0",
  "truncation": null,
  "padding": {
    "strategy": "BatchLongest",
    "direction": "Right",
    "pad_to_multiple_of": null,
    "pad_id": 0,
    "pad_type_id": 0,
    "pad_token": "[PAD]"
  },
  "added_tokens": [
    {
      "id": 0,
      "content": "[PAD]",
      "single_word": false,
      "lstrip": false,
      "rstrip": false,
      "normalized": false,
      "special": true
    },
    {
      "id": 1,
      "content": "[UNK]",
      "single_word": false,
      "lstrip": false,
      "rstrip": false,
      "normalized": false,
      "special": true
    },
    {
      "id": 2,
      "content": "[BOS]",
      "single_word": false,
      "lstrip": false,
      "rstrip": false,
      "normalized": false,
      "special": true
    },
    {
      "id": 3,
      "content": "[EOS]",
      "single_word": false,
      "lstrip": false,
      "rstrip": false,
      "normalized": false,
      "special": true
    }
  ],
  "normalizer": null,
  "pre_tokenizer": {
    "type": "Whitespace"
  },
  "post_processor": {
    "type": "TemplateProcessing",
    "single": [
      {
        "SpecialToken": {
          "id": "[BOS]",
          "type_id": 0
        }
      },
      {
        "Sequence": {
          "id": "A",
          "type_id": 0
        }
      },
      {
        "SpecialToken": {
          "id": "[EOS]",
          "type_id": 0
        }
      }
    ],
    "pair": [
      {
        "Sequence": {
          "id": "A",
          "type_id": 0
        }
      },
      {
        "Sequence": {
          "id": "B",
          "type_id": 1
        }
      }
    ],
    "special_tokens": {
      "[BOS]": {
        "id": "[BOS]",
        "ids": [
          2
        ],
        "tokens": [
          "[BOS]"
        ]
      },
      "[EOS]": {
        "id": "[EOS]",
        "ids": [
          3
        ],
        "tokens": [
          "[EOS]"
        ]
      }
    }
  },
  "decoder": null,
  "model": {
    "type": "BPE",
    "dropout": null,
    "unk_token": "[UNK]",
    "continuing_subword_prefix": "##",
    "end_of_word_suffix": "</w>",
    "fuse_unk": true,
    "byte_fallback": false,
    "ignore_merges": false,
    "vocab": {
      "[PAD]": 0,
      "[UNK]": 1,
      "[BOS]": 2,
      "[EOS]": 3,
      "!": 4,
      "\"": 5,
      "$": 6,
      "&": 7,
      "'": 8,
      "(": 9,
      ")": 10,
      "*": 11,
      "+": 12,
      ",": 13,
      "-": 14,
      ".": 15,
      "/": 16,
      "0": 17,
      "1": 18,
      "2": 19,
      "3": 20,
      "4": 21,
      "5": 22,
      "6": 23,
      "7": 24,
      "8": 25,
      "9": 26,
      ":": 27,
      ";": 28,
      "?": 29,
      "A": 30,
      "B": 31,
      "C": 32,
      "D": 33,
      "E": 34,
      "F": 35,
      "G": 36,
      "H": 37,
      "I": 38,
      "J": 39,
      "K": 40,
      "L": 41,
      "M": 42,
      "N": 43,
      "O": 44,
      "P": 45,
      "Q": 46,
      "R": 47,
      "S": 48,
      "T": 49,
      "U": 50,
      "V": 51,
      "W": 52,
      "X": 53,
      "Y": 54,
      "Z": 55,
      "_": 56,
      "`": 57,
      "a": 58,
      "b": 59,
      "c": 60,
      "d": 61,
      "e": 62,
      "f": 63,
      "g": 64,
      "h": 65,
      "i": 66,
      "j": 67,
      "k": 68,
      "l": 69,
      "m": 70,
      "n": 71,
      "o": 72,
      "p": 73,
      "q": 74,
      "r": 75,
      "s": 76,
      "t": 77,
      "u": 78,
      "v": 79,
      "w": 80,
      "x": 81,
      "y": 82,
      "z": 83,
      "¡": 84,
      "¦": 85,
      "©": 86,
      "«": 87,
      "±": 88,
      "³": 89,
      "´": 90,
      "»": 91,
      "Â": 92,
      "Ã": 93,
      "â": 94,
      "œ": 95,
      "Š": 96,
      "˜": 97,
      "“": 98,
      "”": 99,
      "‰": 100,
      "€": 101,
      "™": 102,
      "##r": 103,
      "##e": 104,
      "##g": 105,
      "##g</w>": 106,
      "##l": 107,
      "##v": 108,
      "##n": 109,
      "##t": 110,
      "##h</w>": 111,
      "##i": 112,
      "##h": 113,
      "##y</w>": 114,
      "##m": 115,
      "##o": 116,
      "##u": 117,
      "##s</w>": 118,
      "##r</w>": 119,
      "##e</w>": 120,
      "##d</w>": 121,
      "##a": 122,
      "##m</w>": 123,
      "##w": 124,
      "##c": 125,
      "##k": 126,
      "##a</w>": 127,
      "##F": 128,
      "##f": 129,
      "##s": 130,
      "##y": 131,
      "##t</w>": 132,
      "##â</w>": 133,
      "##d": 134,
      "##p": 135,
      "##x": 136,
      "##!</w>": 137,
      "##p</w>": 138,
      "##n</w>": 139,
      "##k</w>": 140,
      "##l</w>": 141,
      "##b": 142,
      "##f</w>": 143,
      "##B": 144,
      "##q": 145,
      "##™": 146,
      "##˜</w>": 147,
      "##z": 148,
      "##O": 149,
      "##U</w>": 150,
      "##o</w>": 151,
      "##P": 152,
      "##z</w>": 153,
      "##5</w>": 154,
      "##b</w>": 155,
      "##w</w>": 156,
      "##c</w>": 157,
      "##M": 158,
      "7</w>": 159,
      "?</w>": 160,
      "##H": 161,
      "##A": 162,
      "##T": 163,
      "##I": 164,
      "##N": 165,
      "##G</w>": 166,
      "##'": 167,
      "##\"</w>": 168,
      "##u</w>": 169,
      "##Ã</w>": 170,
      "##S": 171,
      "##R</w>": 172,
      "##3</w>": 173,
      "##W": 174,
      "##i</w>": 175,
      "C</w>": 176,
      "##G": 177,
      "##E": 178,
      "##R": 179,
      "##U": 180,
      "##S</w>": 181,
      "##N</w>": 182,
      "##'</w>": 183,
      "1</w>": 184,
      "##j": 185,
      "##x</w>": 186,
      "##Q": 187,
      "##T</w>": 188,
      "*</w>": 189,
      "##L": 190,
      "##?": 191,
      "##\"": 192,
      "##,</w>": 193,
      "##)": 194,
      "##.</w>": 195,
      "##-": 196,
      "##P</w>": 197,
      "##!": 198,
      "+</w>": 199,
      "##A</w>": 200,
      "Y</w>": 201,
      "##L</w>": 202,
      "##Y</w>": 203,
      "##D": 204,
      "##?</w>": 205,
      "##0</w>": 206,
      "##9</w>": 207,
      "##Y": 208,
      "V</w>": 209,
      "»</w>": 210,
      "A</w>": 211,
      "##E</w>": 212,
      "##J": 213,
      "##8</w>": 214,
      "N</w>": 215,
      "##-</w>": 216,
      "##¦": 217,
      "œ</w>": 218,
      "##0": 219,
      "S</w>": 220,
      "##K</w>": 221,
      "m</w>": 222,
      "##H</w>": 223,
      "##D</w>": 224,
      "â</w>": 225,
      "€</w>": 226,
      "D</w>": 227,
      ")</w>": 228,
      "##7</w>": 229,
      "M</w>": 230,
      "t</w>": 231,
      "p</w>": 232,
      "2</w>": 233,
      "B</w>": 234,
      "##V</w>": 235,
      "##C": 236,
      "s</w>": 237,
      ".</w>": 238,
      "##I</w>": 239,
      "##V": 240,
      "`</w>": 241,
      "P</w>": 242,
      "y</w>": 243,
      "l</w>": 244,
      "##W</w>": 245,
      ";</w>": 246,
      "##‰": 247,
      "##O</w>": 248,
      "##K": 249,
      "9</w>": 250,
      "R</w>": 251,
      "##Â</w>": 252,
      "E</w>": 253,
      "##C</w>": 254,
      "##¦</w>": 255,
      "J</w>": 256,
      "##2</w>": 257,
      "x</w>": 258,
      "##Q</w>": 259,
      "##:</w>": 260,
      "\"</w>": 261,
      "b</w>": 262,
      "H</w>": 263,
      "U</w>": 264,
      "##2": 265,
      "d</w>": 266,
      ",</w>": 267,
      "L</w>": 268,
      "©</w>": 269,
      "Z</w>": 270,
      "Ã</w>": 271,
      "Â</w>": 272,
      "Q</w>": 273,
      "I</w>": 274,
      "(</w>": 275,
      "##M</w>": 276,
      "K</w>": 277,
      "##.": 278,
      "X</w>": 279,
      "##,": 280,
      "a</w>": 281,
      "-</w>": 282,
      "«</w>": 283,
      "T</w>": 284,
      "##”</w>": 285,
      "##6": 286,
      "##4</w>": 287,
      "5</w>": 288,
      "i</w>": 289,
      "4</w>": 290,
      "´</w>": 291,
      "##™</w>": 292,
      "##“</w>": 293,
      "##1": 294,
      "##1</w>": 295,
      "c</w>": 296,
      "/</w>": 297,
      ":</w>": 298,
      "³</w>": 299,
      "G</w>": 300,
      "¡</w>": 301,
      "6</w>": 302,
      "##F</w>": 303,
      "0</w>": 304,
      "8</w>": 305,
      "o</w>": 306,
      "O</w>": 307,
      "r</w>": 308,
      "'</w>": 309,
      "##v</w>": 310,
      "F</w>": 311,
      "k</w>": 312,
      "3</w>": 313,
      "&</w>": 314,
      "##6</w>": 315,
      "±</w>": 316,
      "$</w>": 317,
      "!</w>": 318,
      "_</w>": 319,
      "e</w>": 320,
      "W</w>": 321,
      "th": 322,
      "##nd</w>": 323,
      "##ed</w>": 324,
      "and</w>": 325,
      "the</w>": 326,
      "wa": 327,
      "to</w>": 328,
      "##er</w>": 329,
      "##he</w>": 330,
      "##in": 331,
      "was</w>": 332,
      "##er": 333,
      "##ou": 334,
      "##ar": 335,
      "sa": 336,
      "##il": 337,
      "##ey</w>": 338,
      "##ing</w>": 339,
      "##it": 340,
      "ha": 341,
      "##ay</w>": 342,
      "Th": 343,
      "##oo": 344,
      "it</w>": 345,
      "##en": 346,
      "##at</w>": 347,
      "##en</w>": 348,
      "hi": 349,
      "##el": 350,
      "She</w>": 351,
      "##me</w>": 352,
      "her</w>": 353,
      "##or": 354,
      "##ea": 355,
      "He</w>": 356,
      "##om</w>": 357,
      "##id</w>": 358,
      "They</w>": 359,
      "##ut</w>": 360,
      "##ere</w>": 361,
      "##es</w>": 362,
      "The</w>": 363,
      "##ily</w>": 364,
      "##le</w>": 365,
      "he</w>": 366,
      "##ri": 367,
      "said</w>": 368,
      "st": 369,
      "##ked</w>": 370,
      "to": 371,
      "##ou</w>": 372,
      "##pp": 373,
      "Lily</w>": 374,
      "##an": 375,
      "wit": 376,
      "##ir": 377,
      "in</w>": 378,
      "she</w>": 379,
      "##ce</w>": 380,
      "with</w>": 381,
      "##th": 382,
      "On": 383,
      "pl": 384,
      "##ve</w>": 385,
      "##ot</w>": 386,
      "##an</w>": 387,
      "##ld</w>": 388,
      "his</w>": 389,
      "day</w>": 390,
      "##on": 391,
      "that</w>": 392,
      "wh": 393,
      "##ke</w>": 394,
      "##id": 395,
      "of</w>": 396,
      "##ted</w>": 397,
      "##ly</w>": 398,
      "li": 399,
      "the": 400,
      "##on</w>": 401,
      "##om": 402,
      "had</w>": 403,
      "they</w>": 404,
      "##ck</w>": 405,
      "##ery</w>": 406,
      "##re": 407,
      "so</w>": 408,
      "you</w>": 409,
      "##al": 410,
      "ar": 411,
      "on</w>": 412,
      "fo": 413,
      "##se</w>": 414,
      "##my</w>": 415,
      "##gh": 416,
      "##et</w>": 417,
      "sh": 418,
      "##ow</w>": 419,
      "##tle</w>": 420,
      "happ": 421,
      "##ec": 422,
      "ma": 423,
      "wan": 424,
      "ti": 425,
      "for</w>": 426,
      "bi": 427,
      "##st</w>": 428,
      "##ur": 429,
      "It</w>": 430,
      "very</w>": 431,
      "al": 432,
      "##ow": 433,
      "##ay": 434,
      "##ittle</w>": 435,
      "##ds</w>": 436,
      "little</w>": 437,
      "time</w>": 438,
      "##ch</w>": 439,
      "there</w>": 440,
      "##ould</w>": 441,
      "##is": 442,
      "##ound</w>": 443,
      "##im": 444,
      "happy</w>": 445,
      "##ome</w>": 446,
      "mom</w>": 447,
      "##ter</w>": 448,
      "lo": 449,
      "sm": 450,
      "##ent</w>": 451,
      "fri": 452,
      "ne": 453,
      "bo": 454,
      "is</w>": 455,
      "##ther</w>": 456,
      "big</w>": 457,
      "ba": 458,
      "saw</w>": 459,
      "not</w>": 460,
      "##ra": 461,
      ".\"</w>": 462,
      "ca": 463,
      "One</w>": 464,
      "##ir</w>": 465,
      "##am": 466,
      "be": 467,
      "##ved</w>": 468,
      "but</w>": 469,
      "play</w>": 470,
      "loo": 471,
      "Once</w>": 472,
      "were</w>": 473,
      "##ry</w>": 474,
      "##ght</w>": 475,
      "!\"</w>": 476,
      "##ic": 477,
      "up": 478,
      "##ts</w>": 479,
      "se": 480,
      "##un</w>": 481,
      "upon</w>": 482,
      "wanted</w>": 483,
      "gir": 484,
      "him</w>": 485,
      "girl</w>": 486,
      "##ide</w>": 487,
      "are</w>": 488,
      "them</w>": 489,
      "##in</w>": 490,
      "cl": 491,
      "##ore</w>": 492,
      "sp": 493,
      "their</w>": 494,
      "##fu": 495,
      "an": 496,
      "##ys</w>": 497,
      "##ver</w>": 498,
      "hel": 499,
      "##ear": 500,
      "smil": 501,
      "##ol": 502,
      "up</w>": 503,
      "Tom</w>": 504,
      "##ut": 505,
      "frien": 506,
      "be</w>": 507,
      "have</w>": 508,
      "Ben</w>": 509,
      "as": 510,
      "##ee": 511,
      "went</w>": 512,
      "ex": 513,
      "But</w>": 514,
      "##immy</w>": 515,
      "##dd": 516,
      "at</w>": 517,
      "##ful</w>": 518,
      "go</w>": 519,
      "in": 520,
      "##st": 521,
      "kn": 522,
      "friends</w>": 523,
      "##gs</w>": 524,
      "fel": 525,
      "Timmy</w>": 526,
      "##un": 527,
      "play": 528,
      "all</w>": 529,
      "can</w>": 530,
      "##ro": 531,
      "##ill</w>": 532,
      "?\"</w>": 533,
      "##ch": 534,
      "##rom</w>": 535,
      "##ind</w>": 536,
      "##au": 537,
      "##amed</w>": 538,
      "par": 539,
      "##ome": 540,
      "ta": 541,
      "##thing</w>": 542,
      "named</w>": 543,
      "fl": 544,
      "back</w>": 545,
      "loved</w>": 546,
      "You</w>": 547,
      "Wh": 548,
      "too</w>": 549,
      "##side</w>": 550,
      "sc": 551,
      "car": 552,
      "ch": 553,
      "##de</w>": 554,
      "##one</w>": 555,
      "some": 556,
      "##all</w>": 557,
      "fa": 558,
      "felt</w>": 559,
      "no": 560,
      "##ook</w>": 561,
      "smiled</w>": 562,
      "ev": 563,
      "star": 564,
      "could</w>": 565,
      "do": 566,
      "asked</w>": 567,
      "##ain</w>": 568,
      "fun</w>": 569,
      "##ge": 570,
      "looked</w>": 571,
      "like</w>": 572,
      "##ommy</w>": 573,
      "around</w>": 574,
      "##is</w>": 575,
      "##ks</w>": 576,
      "##al</w>": 577,
      "re": 578,
      "bir": 579,
      "out</w>": 580,
      "boy</w>": 581,
      "##king</w>": 582,
      "##ew</w>": 583,
      "mu": 584,
      "##at": 585,
      "##ood</w>": 586,
      "rea": 587,
      "##led</w>": 588,
      "##ss</w>": 589,
      "would</w>": 590,
      "##ad</w>": 591,
      "thin": 592,
      "##rea": 593,
      "##ear</w>": 594,
      "wor": 595,
      "help</w>": 596,
      "on": 597,
      "ag": 598,
      "##way</w>": 599,
      "un": 600,
      "see</w>": 601,
      "did</w>": 602,
      "##im</w>": 603,
      "what</w>": 604,
      "some</w>": 605,
      "##gether</w>": 606,
      "make</w>": 607,
      "##um": 608,
      "away</w>": 609,
      "started</w>": 610,
      ",\"</w>": 611,
      "made</w>": 612,
      "ran</w>": 613,
      "together</w>": 614,
      "says</w>": 615,
      "something</w>": 616,
      "park</w>": 617,
      "##own</w>": 618,
      "wal": 619,
      "##ice</w>": 620,
      "want</w>": 621,
      "##rou": 622,
      "##ree</w>": 623,
      "##ure</w>": 624,
      "##ited</w>": 625,
      "sad</w>": 626,
      "##ong</w>": 627,
      "scar": 628,
      "hu": 629,
      "##end</w>": 630,
      "exc": 631,
      "from</w>": 632,
      "##gg": 633,
      "new</w>": 634,
      "do</w>": 635,
      "home</w>": 636,
      "Tim</w>": 637,
      "again</w>": 638,
      "##ried</w>": 639,
      "found</w>": 640,
      "then</w>": 641,
      "put</w>": 642,
      "dec": 643,
      "##pl": 644,
      "##sed</w>": 645,
      "bird</w>": 646,
      "##pped</w>": 647,
      "bu": 648,
      "##ers</w>": 649,
      "when</w>": 650,
      "##it</w>": 651,
      "##ge</w>": 652,
      "playing</w>": 653,
      "##our</w>": 654,
      "##am</w>": 655,
      "ab": 656,
      "##ty</w>": 657,
      "who</w>": 658,
      "##gh</w>": 659,
      "bl": 660,
      "##op": 661,
      "ga": 662,
      "sw": 663,
      "things</w>": 664,
      "cou": 665,
      "other</w>": 666,
      "##th</w>": 667,
      "##ti": 668,
      "got</w>": 669,
      "liked</w>": 670,
      "Mom</w>": 671,
      "##out</w>": 672,
      "decid": 673,
      "An": 674,
      "##ays</w>": 675,
      "Su": 676,
      "decided</w>": 677,
      "came</w>": 678,
      "we</w>": 679,
      "friend</w>": 680,
      "##ight</w>": 681,
      "excited</w>": 682,
      "##ny</w>": 683,
      "pa": 684,
      "bec": 685,
      "Ma": 686,
      "as</w>": 687,
      "##ned</w>": 688,
      "##ous</w>": 689,
      "gr": 690,
      "##ery": 691,
      "down</w>": 692,
      "##ack</w>": 693,
      "man</w>": 694,
      "##bb": 695,
      "scared</w>": 696,
      "for": 697,
      "one</w>": 698,
      "##ard</w>": 699,
      "thou": 700,
      "Ann": 701,
      "sl": 702,
      "##ld": 703,
      "##ouse</w>": 704,
      "an</w>": 705,
      "##dy</w>": 706,
      "Max</w>": 707,
      "Sam</w>": 708,
      "##ways</w>": 709,
      "did": 710,
      "find</w>": 711,
      "We</w>": 712,
      "Anna</w>": 713,
      "dog</w>": 714,
      "always</w>": 715,
      "took</w>": 716,
      "clo": 717,
      "##ru": 718,
      "didn</w>": 719,
      "mommy</w>": 720,
      "get</w>": 721,
      "pu": 722,
      "out": 723,
      "about</w>": 724,
      "##oom</w>": 725,
      "toys</w>": 726,
      "your</w>": 727,
      "tree</w>": 728,
      "Sar": 729,
      "outside</w>": 730,
      "pic": 731,
      "will</w>": 732,
      "lear": 733,
      "good</w>": 734,
      "mo": 735,
      "##eci": 736,
      "##oon</w>": 737,
      "me</w>": 738,
      "##ened</w>": 739,
      "ea": 740,
      "##ally</w>": 741,
      "la": 742,
      "##ched</w>": 743,
      "more</w>": 744,
      "pre": 745,
      "Ev": 746,
      "int": 747,
      "##oc": 748,
      "hear": 749,
      "##em": 750,
      "my</w>": 751,
      "##ff": 752,
      "ra": 753,
      "thought</w>": 754,
      "##ite</w>": 755,
      "##augh": 756,
      "##ered</w>": 757,
      "##uc": 758,
      "ju": 759,
      "When</w>": 760,
      "speci": 761,
      "special</w>": 762,
      "old</w>": 763,
      "take</w>": 764,
      "gra": 765,
      "sor": 766,
      "Her</w>": 767,
      "en": 768,
      "##eep</w>": 769,
      "knew</w>": 770,
      "dad</w>": 771,
      "##eful</w>": 772,
      "##ldn</w>": 773,
      "toy</w>": 774,
      "##ble</w>": 775,
      "how</w>": 776,
      "bea": 777,
      "Jo": 778,
      "gi": 779,
      "##ky</w>": 780,
      "much</w>": 781,
      "##gged</w>": 782,
      "car</w>": 783,
      "##enly</w>": 784,
      "##ddenly</w>": 785,
      "##tter</w>": 786,
      "##fter</w>": 787,
      "than": 788,
      "know</w>": 789,
      "##ting</w>": 790,
      "sorry</w>": 791,
      "##ep": 792,
      "So</w>": 793,
      "house</w>": 794,
      "tw": 795,
      "##ell": 796,
      "shar": 797,
      "ho": 798,
      "co": 799,
      "##sh": 800,
      "told</w>": 801,
      "##ran": 802,
      "Jack</w>": 803,
      "op": 804,
      "##ent": 805,
      "inside</w>": 806,
      "gave</w>": 807,
      "le": 808,
      "##ant</w>": 809,
      "tried</w>": 810,
      "into</w>": 811,
      "##ish</w>": 812,
      "##ss": 813,
      "prou": 814,
      "ball</w>": 815,
      "##ia</w>": 816,
      "pi": 817,
      "qu": 818,
      "##ean</w>": 819,
      "never</w>": 820,
      "man": 821,
      "##ped</w>": 822,
      "##ause</w>": 823,
      "if</w>": 824,
      "water</w>": 825,
      "look</w>": 826,
      "played</w>": 827,
      "##est</w>": 828,
      "heard</w>": 829,
      "wat": 830,
      "over</w>": 831,
      "com": 832,
      "proud</w>": 833,
      "From</w>": 834,
      "couldn</w>": 835,
      "expl": 836,
      "pret": 837,
      "each</w>": 838,
      "this</w>": 839,
      "fe": 840,
      "room</w>": 841,
      "because</w>": 842,
      "Suddenly</w>": 843,
      "hugged</w>": 844,
      "Then</w>": 845,
      "laugh": 846,
      "##oor</w>": 847,
      "po": 848,
      "just</w>": 849,
      "##ise</w>": 850,
      "His</w>": 851,
      "##ile</w>": 852,
      "gre": 853,
      "Mia</w>": 854,
      "every": 855,
      "any": 856,
      "Sara</w>": 857,
      "##ying</w>": 858,
      "##fe</w>": 859,
      "no</w>": 860,
      "many</w>": 861,
      "fin": 862,
      "##ess</w>": 863,
      "##owed</w>": 864,
      "##li": 865,
      "sto": 866,
      "nice</w>": 867,
      "box</w>": 868,
      "##ving</w>": 869,
      "##ish": 870,
      "##ell</w>": 871,
      "go": 872,
      "sn": 873,
      "##et": 874,
      "##ded</w>": 875,
      "learned</w>": 876,
      "And</w>": 877,
      "Let</w>": 878,
      "bear</w>": 879,
      "col": 880,
      "##kes</w>": 881,
      "anim": 882,
      "unti": 883,
      "##gry</w>": 884,
      "##ff</w>": 885,
      "jo": 886,
      "##ning</w>": 887,
      "bro": 888,
      "better</w>": 889,
      "##elf</w>": 890,
      "cal": 891,
      "##ard": 892,
      "until</w>": 893,
      "ad": 894,
      "small</w>": 895,
      "##la": 896,
      "##ft</w>": 897,
      "ro": 898,
      "##unny</w>": 899,
      "pe": 900,
      "im": 901,
      "hea": 902,
      "##ket</w>": 903,
      "fi": 904,
      "That</w>": 905,
      "##ue</w>": 906,
      "##ddy</w>": 907,
      "di": 908,
      "##ame</w>": 909,
      "flow": 910,
      "##ine</w>": 911,
      "best</w>": 912,
      "##ll</w>": 913,
      "lea": 914,
      "fir": 915,
      "##eel</w>": 916,
      "##als</w>": 917,
      "pr": 918,
      "eat</w>": 919,
      "hur": 920,
      "careful</w>": 921,
      "sky</w>": 922,
      "cu": 923,
      "thanked</w>": 924,
      "##ves</w>": 925,
      "##zed</w>": 926,
      "beaut": 927,
      "bra": 928,
      "gard": 929,
      "##urp": 930,
      "garden</w>": 931,
      "su": 932,
      "feel": 933,
      "##self</w>": 934,
      "##sh</w>": 935,
      "##iny</w>": 936,
      "lots</w>": 937,
      "lou": 938,
      "even</w>": 939,
      "laughed</w>": 940,
      "fam": 941,
      "off</w>": 942,
      "jum": 943,
      "by</w>": 944,
      "long</w>": 945,
      "##ding</w>": 946,
      "coo": 947,
      "end</w>": 948,
      "don</w>": 949,
      "beauti": 950,
      "##lly</w>": 951,
      "Yes</w>": 952,
      "love</w>": 953,
      "still</w>": 954,
      "beautiful</w>": 955,
      "list": 956,
      "##der": 957,
      "say</w>": 958,
      "cat</w>": 959,
      "come</w>": 960,
      "What</w>": 961,
      "animals</w>": 962,
      "Can</w>": 963,
      "Mommy</w>": 964,
      "##les</w>": 965,
      "##or</w>": 966,
      "tru": 967,
      "##ate</w>": 968,
      "##rong</w>": 969,
      "##ept</w>": 970,
      "rem": 971,
      "kind</w>": 972,
      "##ank</w>": 973,
      "Luc": 974,
      "Joh": 975,
      "safe</w>": 976,
      "gl": 977,
      "han": 978,
      "##ie</w>": 979,
      "dol": 980,
      "As</w>": 981,
      "feel</w>": 982,
      "lived</w>": 983,
      "##il</w>": 984,
      "both</w>": 985,
      "way</w>": 986,
      "##ea</w>": 987,
      "stor": 988,
      "imp": 989,
      "##ople</w>": 990,
      "##der</w>": 991,
      "##ma</w>": 992,
      "its</w>": 993,
      "family</w>": 994,
      "##kay</w>": 995,
      "tow": 996,
      "so": 997,
      "dan": 998,
      "##oun": 999,
      "tur": 1000,
      "red</w>": 1001,
      "After</w>": 1002,
      "##ished</w>": 1003,
      "##ls</w>": 1004,
      "every</w>": 1005,
      "two</w>": 1006,
      "hard</w>": 1007,
      "##our": 1008,
      "Bo": 1009,
      "##ick": 1010,
      "brave</w>": 1011,
      "people</w>": 1012,
      "##ies</w>": 1013,
      "##be</w>": 1014,
      "##urpri": 1015,
      "Lucy</w>": 1016,
      "called</w>": 1017,
      "adv": 1018,
      "flew</w>": 1019,
      "pla": 1020,
      "ow": 1021,
      "hurt</w>": 1022,
      "walked</w>": 1023,
      "surpri": 1024,
      "##erf": 1025,
      "loud</w>": 1026,
      "sun</w>": 1027,
      "##ane</w>": 1028,
      "angry</w>": 1029,
      "not": 1030,
      "##ort": 1031,
      "soon</w>": 1032,
      "try</w>": 1033,
      "kept</w>": 1034,
      "let</w>": 1035,
      "share</w>": 1036,
      "##fore</w>": 1037,
      "pretty</w>": 1038,
      "bad</w>": 1039,
      "con": 1040,
      "or</w>": 1041,
      "dra": 1042,
      "##xt</w>": 1043,
      "Thank</w>": 1044,
      "going</w>": 1045,
      "ac": 1046,
      "shiny</w>": 1047,
      "dis": 1048,
      "##dded</w>": 1049,
      "opened</w>": 1050,
      "ground</w>": 1051,
      "advent": 1052,
      "crea": 1053,
      "No</w>": 1054,
      "John</w>": 1055,
      "##illy</w>": 1056,
      "##ely</w>": 1057,
      "##ick</w>": 1058,
      "id": 1059,
      "##ger</w>": 1060,
      "##ic</w>": 1061,
      "before</w>": 1062,
      "but": 1063,
      "noise</w>": 1064,
      "bri": 1065,
      "##ye</w>": 1066,
      "should</w>": 1067,
      "##ner</w>": 1068,
      "run</w>": 1069,
      "forg": 1070,
      "fast</w>": 1071,
      "##ar</w>": 1072,
      "explore</w>": 1073,
      "##qu": 1074,
      "##so</w>": 1075,
      "hug</w>": 1076,
      "mon": 1077,
      "also</w>": 1078,
      "picked</w>": 1079,
      "lot</w>": 1080,
      "feeling</w>": 1081,
      "door</w>": 1082,
      "while</w>": 1083,
      "##and": 1084,
      "Every": 1085,
      "now</w>": 1086,
      "idea</w>": 1087,
      "Every</w>": 1088,
      "##ll": 1089,
      "##dly</w>": 1090,
      "##te</w>": 1091,
      "war": 1092,
      "clim": 1093,
      "next</w>": 1094,
      "win": 1095,
      "##emb": 1096,
      "clos": 1097,
      "keep</w>": 1098,
      "tra": 1099,
      "has</w>": 1100,
      "walking</w>": 1101,
      "Da": 1102,
      "pict": 1103,
      "am": 1104,
      "##iced</w>": 1105,
      "nodded</w>": 1106,
      "cr": 1107,
      "smile</w>": 1108,
      "dre": 1109,
      "Sp": 1110,
      "kit": 1111,
      "looking</w>": 1112,
      "show</w>": 1113,
      "ru": 1114,
      "need</w>": 1115,
      "##ummy</w>": 1116,
      "being</w>": 1117,
      "##enny</w>": 1118,
      "run": 1119,
      "€™</w>": 1120,
      "##ion</w>": 1121,
      "rememb": 1122,
      "##db": 1123,
      "##jo": 1124,
      "tou": 1125,
      "##ur</w>": 1126,
      "give</w>": 1127,
      "##by</w>": 1128,
      "butt": 1129,
      "tal": 1130,
      "Bob</w>": 1131,
      "##ined</w>": 1132,
      "stopped</w>": 1133,
      "##eli": 1134,
      "##per</w>": 1135,
      "diff": 1136,
      "food</w>": 1137,
      "##ures</w>": 1138,
      "##yes</w>": 1139,
      "##ious</w>": 1140,
      "brea": 1141,
      "won": 1142,
      "clean</w>": 1143,
      "noticed</w>": 1144,
      "goo": 1145,
      "##ied</w>": 1146,
      "ama": 1147,
      "eyes</w>": 1148,
      "hands</w>": 1149,
      "enjo": 1150,
      "##ents</w>": 1151,
      "slide</w>": 1152,
      "ever</w>": 1153,
      "shou": 1154,
      "##ocks</w>": 1155,
      "showed</w>": 1156,
      "repl": 1157,
      "forest</w>": 1158,
      "great</w>": 1159,
      "flowers</w>": 1160,
      "##day</w>": 1161,
      "app": 1162,
      "##ever</w>": 1163,
      "color": 1164,
      "truck</w>": 1165,
      "everyone</w>": 1166,
      "import": 1167,
      "##ct": 1168,
      "##ink</w>": 1169,
      "##ease</w>": 1170,
      "fish</w>": 1171,
      "tre": 1172,
      "##tch</w>": 1173,
      "el": 1174,
      "Sue</w>": 1175,
      "okay</w>": 1176,
      "important</w>": 1177,
      "##ect</w>": 1178,
      "##ns</w>": 1179,
      "rabb": 1180,
      "hand</w>": 1181,
      "##uck</w>": 1182,
      "##ark</w>": 1183,
      "place</w>": 1184,
      "Spot</w>": 1185,
      "listen</w>": 1186,
      "right</w>": 1187,
      "quick": 1188,
      "##bbed</w>": 1189,
      "blue</w>": 1190,
      "Do</w>": 1191,
      "quickly</w>": 1192,
      "foll": 1193,
      "replied</w>": 1194,
      "bed</w>": 1195,
      "This</w>": 1196,
      "watched</w>": 1197,
      "after</w>": 1198,
      "##able</w>": 1199,
      "May": 1200,
      "##ons</w>": 1201,
      "where</w>": 1202,
      "Look</w>": 1203,
      "became</w>": 1204,
      "##dbye</w>": 1205,
      "##ild</w>": 1206,
      "differ": 1207,
      "mor": 1208,
      "Maybe</w>": 1209,
      "##ster</w>": 1210,
      "##oice</w>": 1211,
      "sure</w>": 1212,
      "rabbit</w>": 1213,
      "cake</w>": 1214,
      "curi": 1215,
      "been</w>": 1216,
      "high</w>": 1217,
      "mag": 1218,
      "fly</w>": 1219,
      "##ah</w>": 1220,
      "work</w>": 1221,
      "stay</w>": 1222,
      "tr": 1223,
      "walk</w>": 1224,
      "squ": 1225,
      "goodbye</w>": 1226,
      "face</w>": 1227,
      "##more</w>": 1228,
      "anymore</w>": 1229,
      "closer</w>": 1230,
      "##ears</w>": 1231,
      "Jane</w>": 1232,
      "boat</w>": 1233,
      "different</w>": 1234,
      "##eet</w>": 1235,
      "strong</w>": 1236,
      "store</w>": 1237,
      "voice</w>": 1238,
      "doll</w>": 1239,
      "##ila</w>": 1240,
      "##el</w>": 1241,
      "##all": 1242,
      "curious</w>": 1243,
      "si": 1244,
      "Sarah</w>": 1245,
      "##tt": 1246,
      "Lila</w>": 1247,
      "fav": 1248,
      "nee": 1249,
      "##ired</w>": 1250,
      "##ins</w>": 1251,
      "mean</w>": 1252,
      "##ping</w>": 1253,
      "br": 1254,
      "helped</w>": 1255,
      "head</w>": 1256,
      "first</w>": 1257,
      "##here</w>": 1258,
      "Everyone</w>": 1259,
      "##ck": 1260,
      "##age</w>": 1261,
      "fell</w>": 1262,
      "sha": 1263,
      "cont": 1264,
      "reali": 1265,
      "##shed</w>": 1266,
      "our</w>": 1267,
      "use</w>": 1268,
      "happened</w>": 1269,
      "##ive</w>": 1270,
      "Dad</w>": 1271,
      "three</w>": 1272,
      "warm</w>": 1273,
      "##ull</w>": 1274,
      "##chen</w>": 1275,
      "kitchen</w>": 1276,
      "night</w>": 1277,
      "del": 1278,
      "dro": 1279,
      "birds</w>": 1280,
      "grabbed</w>": 1281,
      "mis": 1282,
      "che": 1283,
      "dress</w>": 1284,
      "mea": 1285,
      "##olly</w>": 1286,
      "here</w>": 1287,
      "only</w>": 1288,
      "story</w>": 1289,
      "under": 1290,
      "wait</w>": 1291,
      "sees</w>": 1292,
      "does</w>": 1293,
      "realized</w>": 1294,
      "glad</w>": 1295,
      "tea": 1296,
      "##range</w>": 1297,
      "re</w>": 1298,
      "jumped</w>": 1299,
      "Don</w>": 1300,
      "##ppy</w>": 1301,
      "beh": 1302,
      "her": 1303,
      "adventure</w>": 1304,
      "##ling</w>": 1305,
      "am</w>": 1306,
      "##ings</w>": 1307,
      "us</w>": 1308,
      "cra": 1309,
      "##ps</w>": 1310,
      "reached</w>": 1311,
      "grand": 1312,
      "grass</w>": 1313,
      "tri": 1314,
      "having</w>": 1315,
      "book</w>": 1316,
      "##zy</w>": 1317,
      "beg": 1318,
      "##ough</w>": 1319,
      "cha": 1320,
      "throu": 1321,
      "cry</w>": 1322,
      "watch</w>": 1323,
      "prin": 1324,
      "##sp": 1325,
      "ate</w>": 1326,
      "cla": 1327,
      "##dow</w>": 1328,
      "##ssed</w>": 1329,
      "sho": 1330,
      "##other</w>": 1331,
      "ready</w>": 1332,
      "boo": 1333,
      "bright</w>": 1334,
      "yummy</w>": 1335,
      "through</w>": 1336,
      "##isy</w>": 1337,
      "##est": 1338,
      "##dr": 1339,
      "##where</w>": 1340,
      "world</w>": 1341,
      "fil": 1342,
      "hop": 1343,
      "open</w>": 1344,
      "##sy</w>": 1345,
      "game</w>": 1346,
      "##thers</w>": 1347,
      "##tim": 1348,
      "bit</w>": 1349,
      "really</w>": 1350,
      "##times</w>": 1351,
      "shouted</w>": 1352,
      "san": 1353,
      "##and</w>": 1354,
      "began</w>": 1355,
      "favor": 1356,
      "favorite</w>": 1357,
      "mar": 1358,
      "##mself</w>": 1359,
      "##ids</w>": 1360,
      "himself</w>": 1361,
      "underst": 1362,
      "hun": 1363,
      "rock</w>": 1364,
      "tired</w>": 1365,
      "##ken</w>": 1366,
      "##yed</w>": 1367,
      "##fully</w>": 1368,
      "used</w>": 1369,
      "##ows</w>": 1370,
      "butterf": 1371,
      "Now</w>": 1372,
      "pain": 1373,
      "mum</w>": 1374,
      "thing</w>": 1375,
      "yell": 1376,
      "done</w>": 1377,
      "making</w>": 1378,
      "pat": 1379,
      "than</w>": 1380,
      "coming</w>": 1381,
      "kids</w>": 1382,
      "funny</w>": 1383,
      "name</w>": 1384,
      "far": 1385,
      "lady</w>": 1386,
      "cook": 1387,
      "Sally</w>": 1388,
      "##ght": 1389,
      "Joe</w>": 1390,
      "learn</w>": 1391,
      "##elie": 1392,
      "worry</w>": 1393,
      "seen</w>": 1394,
      "##ool</w>": 1395,
      "pond</w>": 1396,
      "cars</w>": 1397,
      "looks</w>": 1398,
      "brother</w>": 1399,
      "cried</w>": 1400,
      "fro": 1401,
      "why</w>": 1402,
      "another</w>": 1403,
      "There</w>": 1404,
      "##ary</w>": 1405,
      "Wow</w>": 1406,
      "prom": 1407,
      "Tommy</w>": 1408,
      "waved</w>": 1409,
      "top</w>": 1410,
      "stop</w>": 1411,
      "flower</w>": 1412,
      "bunny</w>": 1413,
      "parents</w>": 1414,
      "bar": 1415,
      "##ake</w>": 1416,
      "lon": 1417,
      "catch</w>": 1418,
      "care</w>": 1419,
      "soft</w>": 1420,
      "near</w>": 1421,
      "ri": 1422,
      "##ised</w>": 1423,
      "din": 1424,
      "Benny</w>": 1425,
      "paper</w>": 1426,
      "dri": 1427,
      "under</w>": 1428,
      "delic": 1429,
      "##efully</w>": 1430,
      "green</w>": 1431,
      "pro": 1432,
      "less": 1433,
      "can": 1434,
      "hole</w>": 1435,
      "trees</w>": 1436,
      "sk": 1437,
      "surprise</w>": 1438,
      "remembered</w>": 1439,
      "behind</w>": 1440,
      "yellow</w>": 1441,
      "##di": 1442,
      "##ued</w>": 1443,
      "lesson</w>": 1444,
      "worked</w>": 1445,
      "##row</w>": 1446,
      "running</w>": 1447,
      "full</w>": 1448,
      "hopped</w>": 1449,
      "gu": 1450,
      "touch</w>": 1451,
      "mom": 1452,
      "##es": 1453,
      "##eddy</w>": 1454,
      "floor</w>": 1455,
      "##ream": 1456,
      "wished</w>": 1457,
      "##ac": 1458,
      "blocks</w>": 1459,
      "##owing</w>": 1460,
      "lost</w>": 1461,
      "##ayed</w>": 1462,
      "happily</w>": 1463,
      "##ze</w>": 1464,
      "##zing</w>": 1465,
      "needed</w>": 1466,
      "years</w>": 1467,
      "doing</w>": 1468,
      "Em": 1469,
      "mouse</w>": 1470,
      "##ing": 1471,
      "dir": 1472,
      "trea": 1473,
      "cold</w>": 1474,
      "At</w>": 1475,
      "butterfly</w>": 1476,
      "Fin": 1477,
      "##uff": 1478,
      "carefully</w>": 1479,
      "pick</w>": 1480,
      "think</w>": 1481,
      "sun": 1482,
      "##pe</w>": 1483,
      "likes</w>": 1484,
      "climb": 1485,
      "surprised</w>": 1486,
      "left</w>": 1487,
      "picture</w>": 1488,
      "##ching</w>": 1489,
      "enjoyed</w>": 1490,
      "held</w>": 1491,
      "finished</w>": 1492,
      "me": 1493,
      "tell</w>": 1494,
      "sat</w>": 1495,
      "\".</w>": 1496,
      "##dge</w>": 1497,
      "wrong</w>": 1498,
      "ice</w>": 1499,
      "perf": 1500,
      "wonder": 1501,
      "##iting</w>": 1502,
      "##mer</w>": 1503,
      "followed</w>": 1504,
      "##ee</w>": 1505,
      "Finally</w>": 1506,
      "chil": 1507,
      "arri": 1508,
      "hear</w>": 1509,
      "Billy</w>": 1510,
      "move</w>": 1511,
      "wind</w>": 1512,
      "herself</w>": 1513,
      "##ello</w>": 1514,
      "dark</w>": 1515,
      "anything</w>": 1516,
      "##ced</w>": 1517,
      "contin": 1518,
      "##dren</w>": 1519,
      "da": 1520,
      "close</w>": 1521,
      "##ip</w>": 1522,
      "mi": 1523,
      "children</w>": 1524,
      "friendly</w>": 1525,
      "##ards</w>": 1526,
      "mus": 1527,
      "hat</w>": 1528,
      "cool</w>": 1529,
      "buy</w>": 1530,
      "##rel</w>": 1531,
      "Daisy</w>": 1532,
      "wonderful</w>": 1533,
      "##bo": 1534,
      "##ens</w>": 1535,
      "arrived</w>": 1536,
      "Hello</w>": 1537,
      "please</w>": 1538,
      "agre": 1539,
      "hill</w>": 1540,
      "delicious</w>": 1541,
      "bag</w>": 1542,
      "sound</w>": 1543,
      "##stle</w>": 1544,
      "colors</w>": 1545,
      "grandma</w>": 1546,
      "Molly</w>": 1547,
      "someone</w>": 1548,
      "rain</w>": 1549,
      "coun": 1550,
      "table</w>": 1551,
      "filled</w>": 1552,
      "##eb": 1553,
      "ll</w>": 1554,
      "own</w>": 1555,
      "gone</w>": 1556,
      "ste": 1557,
      "tall</w>": 1558,
      "frog</w>": 1559,
      "continued</w>": 1560,
      "broken</w>": 1561,
      "##ces</w>": 1562,
      "able</w>": 1563,
      "leaves</w>": 1564,
      "##ag": 1565,
      "far</w>": 1566,
      "##um</w>": 1567,
      "swing</w>": 1568,
      "climb</w>": 1569,
      "wants</w>": 1570,
      "else</w>": 1571,
      "stick</w>": 1572,
      "sweet</w>": 1573,
      "fru": 1574,
      "##ence</w>": 1575,
      "##umb": 1576,
      "##erous</w>": 1577,
      "vis": 1578,
      "ask</w>": 1579,
      "read</w>": 1580,
      "cream</w>": 1581,
      "##ead</w>": 1582,
      "##ries</w>": 1583,
      "##orn</w>": 1584,
      "window</w>": 1585,
      "##uffy</w>": 1586,
      "spo": 1587,
      "lion</w>": 1588,
      "##etting</w>": 1589,
      "baby</w>": 1590,
      "pink</w>": 1591,
      "jump</w>": 1592,
      "To": 1593,
      "##ap</w>": 1594,
      "per": 1595,
      "poin": 1596,
      "amazing</w>": 1597,
      "yes</w>": 1598,
      "fire</w>": 1599,
      "any</w>": 1600,
      "acc": 1601,
      "forgot</w>": 1602,
      "##sn</w>": 1603,
      "books</w>": 1604,
      "getting</w>": 1605,
      "mess</w>": 1606,
      "hot</w>": 1607,
      "enough</w>": 1608,
      "pictures</w>": 1609,
      "##ames</w>": 1610,
      "castle</w>": 1611,
      "woo": 1612,
      "lau": 1613,
      "laugh</w>": 1614,
      "agreed</w>": 1615,
      "##sure</w>": 1616,
      "understand</w>": 1617,
      "white</w>": 1618,
      "dinner</w>": 1619,
      "squir": 1620,
      "Amy</w>": 1621,
      "OK</w>": 1622,
      "stayed</w>": 1623,
      "pul": 1624,
      "morning</w>": 1625,
      "cookies</w>": 1626,
      "or": 1627,
      "pea": 1628,
      "scary</w>": 1629,
      "gen": 1630,
      "mother</w>": 1631,
      "trying</w>": 1632,
      "Why</w>": 1633,
      "hair</w>": 1634,
      "Jill</w>": 1635,
      "sometimes</w>": 1636,
      "finally</w>": 1637,
      "climbed</w>": 1638,
      "others</w>": 1639,
      "set</w>": 1640,
      "smiles</w>": 1641,
      "hungry</w>": 1642,
      "wet</w>": 1643,
      "fix</w>": 1644,
      "##ation</w>": 1645,
      "tast": 1646,
      "Gran": 1647,
      "##ms</w>": 1648,
      "cloth": 1649,
      "##gon</w>": 1650,
      "##zz": 1651,
      "##ross</w>": 1652,
      "brou": 1653,
      "hol": 1654,
      "brought</w>": 1655,
      "##eld</w>": 1656,
      "clothes</w>": 1657,
      "rol": 1658,
      "turned</w>": 1659,
      "daddy</w>": 1660,
      "makes</w>": 1661,
      "##ream</w>": 1662,
      "listened</w>": 1663,
      "pol": 1664,
      "talk</w>": 1665,
      "air</w>": 1666,
      "few</w>": 1667,
      "##ocket</w>": 1668,
      "##sted</w>": 1669,
      "ball": 1670,
      "##oring</w>": 1671,
      "bel": 1672,
      "everything</w>": 1673,
      "strange</w>": 1674,
      "##inging</w>": 1675,
      "##key</w>": 1676,
      "sear": 1677,
      "Grand": 1678,
      "beach</w>": 1679,
      "puppy</w>": 1680,
      "ride</w>": 1681,
      "hon": 1682,
      "rest</w>": 1683,
      "thank</w>": 1684,
      "waited</w>": 1685,
      "Fl": 1686,
      "light</w>": 1687,
      "moment</w>": 1688,
      "amazed</w>": 1689,
      "##ance</w>": 1690,
      "##ark": 1691,
      "stre": 1692,
      "see": 1693,
      "em": 1694,
      "alone</w>": 1695,
      "Soon</w>": 1696,
      "##ets</w>": 1697,
      "tail</w>": 1698,
      "Ju": 1699,
      "Come</w>": 1700,
      "##pping</w>": 1701,
      "##elc": 1702,
      "silly</w>": 1703,
      "wasn</w>": 1704,
      "##ute</w>": 1705,
      "##ming</w>": 1706,
      "##cked</w>": 1707,
      "teddy</w>": 1708,
      "qui": 1709,
      "asks</w>": 1710,
      "##ating</w>": 1711,
      "woods</w>": 1712,
      "duck</w>": 1713,
      "##ches</w>": 1714,
      "stu": 1715,
      "All</w>": 1716,
      "##iry</w>": 1717,
      "joy</w>": 1718,
      "leave</w>": 1719,
      "##ope</w>": 1720,
      "sis": 1721,
      "Al": 1722,
      "hide</w>": 1723,
      "bas": 1724,
      "draw</w>": 1725,
      "whis": 1726,
      "##cess</w>": 1727,
      "squirrel</w>": 1728,
      "clou": 1729,
      "##oo</w>": 1730,
      "##lar</w>": 1731,
      "##ten</w>": 1732,
      "##igh": 1733,
      "##art</w>": 1734,
      "flying</w>": 1735,
      "##oke</w>": 1736,
      "##gger</w>": 1737,
      "##thy</w>": 1738,
      "##owly</w>": 1739,
      "lake</w>": 1740,
      "##ter": 1741,
      "pulled</w>": 1742,
      "might</w>": 1743,
      "sec": 1744,
      "##ses</w>": 1745,
      "##elled</w>": 1746,
      "promised</w>": 1747,
      "##rew</w>": 1748,
      "dance</w>": 1749,
      "Mam": 1750,
      "towards</w>": 1751,
      "##eces</w>": 1752,
      "##pes</w>": 1753,
      "pieces</w>": 1754,
      "runs</w>": 1755,
      "Oh</w>": 1756,
      "shared</w>": 1757,
      "perfect</w>": 1758,
      "cau": 1759,
      "bigger</w>": 1760,
      "grat": 1761,
      "sing</w>": 1762,
      "thinks</w>": 1763,
      "moral</w>": 1764,
      "##sc": 1765,
      "fox</w>": 1766,
      "wear</w>": 1767,
      "##ump": 1768,
      "Mama</w>": 1769,
      "owner</w>": 1770,
      "magic": 1771,
      "sister</w>": 1772,
      "##vy</w>": 1773,
      "living</w>": 1774,
      "spark": 1775,
      "##co": 1776,
      "bran": 1777,
      "str": 1778,
      "back": 1779,
      "##ucky</w>": 1780,
      "##cket</w>": 1781,
      "dolls</w>": 1782,
      "candy</w>": 1783,
      "##sing</w>": 1784,
      "party</w>": 1785,
      "##ven</w>": 1786,
      "everywhere</w>": 1787,
      "##ient</w>": 1788,
      "music</w>": 1789,
      "grateful</w>": 1790,
      "pretend</w>": 1791,
      "Okay</w>": 1792,
      "Sure</w>": 1793,
      "belie": 1794,
      "##ort</w>": 1795,
      "bike</w>": 1796,
      "slowly</w>": 1797,
      "won</w>": 1798,
      "welc": 1799,
      "such</w>": 1800,
      "mou": 1801,
      "##set</w>": 1802,
      "side</w>": 1803,
      "rain": 1804,
      "##ang": 1805,
      "blan": 1806,
      "fla": 1807,
      "##eph": 1808,
      "##sw": 1809,
      "##cle</w>": 1810,
      "worried</w>": 1811,
      "faster</w>": 1812,
      "St": 1813,
      "In</w>": 1814,
      "deep</w>": 1815,
      "In": 1816,
      "dr": 1817,
      "##ually</w>": 1818,
      "plan": 1819,
      "answ": 1820,
      "broke</w>": 1821,
      "money</w>": 1822,
      "met</w>": 1823,
      "sig": 1824,
      "##its</w>": 1825,
      "sit</w>": 1826,
      "##ours</w>": 1827,
      "magical</w>": 1828,
      "colorful</w>": 1829,
      "##tain</w>": 1830,
      "job</w>": 1831,
      "##ich</w>": 1832,
      "af": 1833,
      "dang": 1834,
      "sand</w>": 1835,
      "helping</w>": 1836,
      "doct": 1837,
      "bug</w>": 1838,
      "Daddy</w>": 1839,
      "visit</w>": 1840,
      "race</w>": 1841,
      "sleep</w>": 1842,
      "##ig": 1843,
      "join</w>": 1844,
      "##man</w>": 1845,
      "soun": 1846,
      "##ained</w>": 1847,
      "crying</w>": 1848,
      "cut</w>": 1849,
      "The": 1850,
      "kis": 1851,
      "ear": 1852,
      "most</w>": 1853,
      "wea": 1854,
      "##dered</w>": 1855,
      "dangerous</w>": 1856,
      "##owl</w>": 1857,
      "stepped</w>": 1858,
      "comp": 1859,
      "##ells</w>": 1860,
      "##xed</w>": 1861,
      "Jimmy</w>": 1862,
      "spla": 1863,
      "wr": 1864,
      "Just</w>": 1865,
      "train</w>": 1866,
      "heavy</w>": 1867,
      "##app": 1868,
      "farmer</w>": 1869,
      "monster</w>": 1870,
      "princess</w>": 1871,
      "rec": 1872,
      "##ises</w>": 1873,
      "##em</w>": 1874,
      "reach</w>": 1875,
      "remember</w>": 1876,
      "##ower</w>": 1877,
      "Fluffy</w>": 1878,
      "Pl": 1879,
      "smart</w>": 1880,
      "twins</w>": 1881,
      "words</w>": 1882,
      "buil": 1883,
      "##ose</w>": 1884,
      "river</w>": 1885,
      "Emma</w>": 1886,
      "across</w>": 1887,
      "dirty</w>": 1888,
      "##ored</w>": 1889,
      "disapp": 1890,
      "eating</w>": 1891,
      "foo": 1892,
      "##eared</w>": 1893,
      "##hout</w>": 1894,
      "same</w>": 1895,
      "stuck</w>": 1896,
      "closed</w>": 1897,
      "dragon</w>": 1898,
      "field</w>": 1899,
      "wou": 1900,
      "threw</w>": 1901,
      "tower</w>": 1902,
      "mouth</w>": 1903,
      "spot</w>": 1904,
      "song</w>": 1905,
      "##tion</w>": 1906,
      "high": 1907,
      "doctor</w>": 1908,
      "##are</w>": 1909,
      "swim</w>": 1910,
      "accid": 1911,
      "tight</w>": 1912,
      "cray": 1913,
      "Mum</w>": 1914,
      "fur": 1915,
      "dream": 1916,
      "##vely</w>": 1917,
      "bowl</w>": 1918,
      "draw": 1919,
      "##end": 1920,
      "feels</w>": 1921,
      "balloon</w>": 1922,
      "##cks</w>": 1923,
      "Grandma</w>": 1924,
      "bite</w>": 1925,
      "blanket</w>": 1926,
      "Mary</w>": 1927,
      "pushed</w>": 1928,
      "##cy</w>": 1929,
      "##ver": 1930,
      "fr": 1931,
      "year</w>": 1932,
      "treasure</w>": 1933,
      "##chool</w>": 1934,
      "hoped</w>": 1935,
      "La": 1936,
      "##ocked</w>": 1937,
      "##room</w>": 1938,
      "##op</w>": 1939,
      "believe</w>": 1940,
      "without</w>": 1941,
      "turn</w>": 1942,
      "Tw": 1943,
      "Hi</w>": 1944,
      "off": 1945,
      "spr": 1946,
      "clapped</w>": 1947,
      "wouldn</w>": 1948,
      "wi": 1949,
      "pers": 1950,
      "wall</w>": 1951,
      "##lthy</w>": 1952,
      "Please</w>": 1953,
      "lun": 1954,
      "##lie</w>": 1955,
      "##vered</w>": 1956,
      "##ess": 1957,
      "fairy</w>": 1958,
      "school</w>": 1959,
      "cheered</w>": 1960,
      "cor": 1961,
      "town</w>": 1962,
      "##cher</w>": 1963,
      "##els</w>": 1964,
      "fence</w>": 1965,
      "start</w>": 1966,
      "yard</w>": 1967,
      "cour": 1968,
      "brown</w>": 1969,
      "min": 1970,
      "##icy</w>": 1971,
      "drove</w>": 1972,
      "ben": 1973,
      "noises</w>": 1974,
      "##entually</w>": 1975,
      "adventures</w>": 1976,
      "higher</w>": 1977,
      "lonely</w>": 1978,
      "today</w>": 1979,
      "eleph": 1980,
      "quiet</w>": 1981,
      "break</w>": 1982,
      "##ece</w>": 1983,
      "sou": 1984,
      "welcome</w>": 1985,
      "upset</w>": 1986,
      "turns</w>": 1987,
      "bal": 1988,
      "paint</w>": 1989,
      "longer</w>": 1990,
      "swings</w>": 1991,
      "black</w>": 1992,
      "near": 1993,
      "wings</w>": 1994,
      "games</w>": 1995,
      "course</w>": 1996,
      "##dle</w>": 1997,
      "explained</w>": 1998,
      "##ith</w>": 1999,
      "gentle</w>": 2000,
      "chee": 2001,
      "teacher</w>": 2002,
      "suddenly</w>": 2003,
      "child</w>": 2004,
      "##enever</w>": 2005,
      "##ourn": 2006,
      "sand": 2007,
      "Inside</w>": 2008,
      "journ": 2009,
      "seem": 2010,
      "secre": 2011,
      "##ul": 2012,
      "##yst": 2013,
      "ve": 2014,
      "ob": 2015,
      "##tur": 2016,
      "##to</w>": 2017,
      "##yard</w>": 2018,
      "##erry</w>": 2019,
      "trou": 2020,
      "inst": 2021,
      "soup</w>": 2022,
      "sail": 2023,
      "neigh": 2024,
      "##ining</w>": 2025,
      "dropped</w>": 2026,
      "##orrow</w>": 2027,
      "snow": 2028,
      "youn": 2029,
      "hugs</w>": 2030,
      "piece</w>": 2031,
      "##ipped</w>": 2032,
      "animal</w>": 2033,
      "neighb": 2034,
      "##ill": 2035,
      "swam</w>": 2036,
      "stories</w>": 2037,
      "On</w>": 2038,
      "sang</w>": 2039,
      "backyard</w>": 2040,
      "##itting</w>": 2041,
      "preten": 2042,
      "Later</w>": 2043,
      "sign</w>": 2044,
      "Their</w>": 2045,
      "build</w>": 2046,
      "rocks</w>": 2047,
      "wish</w>": 2048,
      "Some": 2049,
      "##og": 2050,
      "forget</w>": 2051,
      "well</w>": 2052,
      "naugh": 2053,
      "pet</w>": 2054,
      "late</w>": 2055,
      "ph": 2056,
      "apple</w>": 2057,
      "must</w>": 2058,
      "Sam": 2059,
      "##ire</w>": 2060,
      "naughty</w>": 2061,
      "##os": 2062,
      "taking</w>": 2063,
      "orange</w>": 2064,
      "dry</w>": 2065,
      "magic</w>": 2066,
      "##fused</w>": 2067,
      "##ought</w>": 2068,
      "pocket</w>": 2069,
      "sol": 2070,
      "jar</w>": 2071,
      "##ening</w>": 2072,
      "swim": 2073,
      "exploring</w>": 2074,
      "owl</w>": 2075,
      "fight</w>": 2076,
      "exp": 2077,
      "hold</w>": 2078,
      "along</w>": 2079,
      "seemed</w>": 2080,
      "hit</w>": 2081,
      "singing</w>": 2082,
      "##ta": 2083,
      "##pa</w>": 2084,
      "shook</w>": 2085,
      "caught</w>": 2086,
      "moved</w>": 2087,
      "comf": 2088,
      "nearby</w>": 2089,
      "we": 2090,
      "wise</w>": 2091,
      "young</w>": 2092,
      "##gu": 2093,
      "shoes</w>": 2094,
      "hor": 2095,
      "##ttle</w>": 2096,
      "lunch</w>": 2097,
      "##ggled</w>": 2098,
      "stars</w>": 2099,
      "Sammy</w>": 2100,
      "tiny</w>": 2101,
      "##cing</w>": 2102,
      "##eal</w>": 2103,
      "though</w>": 2104,
      "woke</w>": 2105,
      "##itt": 2106,
      "##ph": 2107,
      "tom": 2108,
      "##ghtly</w>": 2109,
      "##ently</w>": 2110,
      "##ock</w>": 2111,
      "##rot</w>": 2112,
      "elephant</w>": 2113,
      "pra": 2114,
      "bench</w>": 2115,
      "secret</w>": 2116,
      "mil": 2117,
      "relie": 2118,
      "resp": 2119,
      "sea</w>": 2120,
      "monkey</w>": 2121,
      "shapes</w>": 2122,
      "enjoy</w>": 2123,
      "##lo</w>": 2124,
      "##ountain</w>": 2125,
      "##tive</w>": 2126,
      "##ors</w>": 2127,
      "snow</w>": 2128,
      "##ions</w>": 2129,
      "heart</w>": 2130,
      "Ch": 2131,
      "rainb": 2132,
      "mine</w>": 2133,
      "arms</w>": 2134,
      "bucket</w>": 2135,
      "juice</w>": 2136,
      "branch</w>": 2137,
      "kite</w>": 2138,
      "bur": 2139,
      "nap</w>": 2140,
      "hello</w>": 2141,
      "##erful</w>": 2142,
      "bee</w>": 2143,
      "takes</w>": 2144,
      "busy</w>": 2145,
      "chair</w>": 2146,
      "sick</w>": 2147,
      "inv": 2148,
      "##raid</w>": 2149,
      "##erries</w>": 2150,
      "round</w>": 2151,
      "bring</w>": 2152,
      "##aughter</w>": 2153,
      "afraid</w>": 2154,
      "##ex</w>": 2155,
      "##ew": 2156,
      "wondered</w>": 2157,
      "##bl": 2158,
      "##ssy</w>": 2159,
      "cir": 2160,
      "mad</w>": 2161,
      "My</w>": 2162,
      "real</w>": 2163,
      "sitting</w>": 2164,
      "Pe": 2165,
      "att": 2166,
      "star</w>": 2167,
      "##ace</w>": 2168,
      "##ooth</w>": 2169,
      "##irs</w>": 2170,
      "kin": 2171,
      "swee": 2172,
      "comes</w>": 2173,
      "accident": 2174,
      "##ittens</w>": 2175,
      "accidentally</w>": 2176,
      "dream</w>": 2177,
      "Mr</w>": 2178,
      "nose</w>": 2179,
      "disco": 2180,
      "##us": 2181,
      "nest</w>": 2182,
      "forever</w>": 2183,
      "inter": 2184,
      "boun": 2185,
      "des": 2186,
      "numb": 2187,
      "##earing</w>": 2188,
      "##dden</w>": 2189,
      "bath": 2190,
      "##ceful</w>": 2191,
      "drink</w>": 2192,
      "duc": 2193,
      "sounds</w>": 2194,
      "daughter</w>": 2195,
      "scream": 2196,
      "gift</w>": 2197,
      "driver</w>": 2198,
      "cute</w>": 2199,
      "eg": 2200,
      "##ity</w>": 2201,
      "pow": 2202,
      "##bby</w>": 2203,
      "har": 2204,
      "exciting</w>": 2205,
      "basket</w>": 2206,
      "fall</w>": 2207,
      "##ement</w>": 2208,
      "cozy</w>": 2209,
      "clea": 2210,
      "street</w>": 2211,
      "wra": 2212,
      "pull</w>": 2213,
      "purp": 2214,
      "##thday</w>": 2215,
      "Jen</w>": 2216,
      "past": 2217,
      "relieved</w>": 2218,
      "nothing</w>": 2219,
      "How</w>": 2220,
      "##tted</w>": 2221,
      "holding</w>": 2222,
      "key</w>": 2223,
      "slee": 2224,
      "laughing</w>": 2225,
      "huge</w>": 2226,
      "farm</w>": 2227,
      "##orm": 2228,
      "##shine</w>": 2229,
      "imag": 2230,
      "##ost</w>": 2231,
      "##amp</w>": 2232,
      "Jenny</w>": 2233,
      "##nt</w>": 2234,
      "rest": 2235,
      "rainbow</w>": 2236,
      "swimming</w>": 2237,
      "ig": 2238,
      "##ward</w>": 2239,
      "##read</w>": 2240,
      "days</w>": 2241,
      "stic": 2242,
      "sunshine</w>": 2243,
      "craw": 2244,
      "purple</w>": 2245,
      "later</w>": 2246,
      "touched</w>": 2247,
      "life</w>": 2248,
      "cheese</w>": 2249,
      "instead</w>": 2250,
      "journey</w>": 2251,
      "##erious</w>": 2252,
      "fit</w>": 2253,
      "milk</w>": 2254,
      "inc": 2255,
      "##ongs</w>": 2256,
      "##ness</w>": 2257,
      "##elly</w>": 2258,
      "sta": 2259,
      "##tie</w>": 2260,
      "sunny</w>": 2261,
      "##ized</w>": 2262,
      "##ged</w>": 2263,
      "birthday</w>": 2264,
      "gives</w>": 2265,
      "searched</w>": 2266,
      "bought</w>": 2267,
      "cel": 2268,
      "pointed</w>": 2269,
      "Of</w>": 2270,
      "##irt</w>": 2271,
      "bottle</w>": 2272,
      "onto</w>": 2273,
      "anyone</w>": 2274,
      "Mittens</w>": 2275,
      "ducks</w>": 2276,
      "pres": 2277,
      "##fish</w>": 2278,
      "##erm": 2279,
      "##shes</w>": 2280,
      "bread</w>": 2281,
      "retur": 2282,
      "creat": 2283,
      "##esting</w>": 2284,
      "lucky</w>": 2285,
      "##us</w>": 2286,
      "plane</w>": 2287,
      "tasty</w>": 2288,
      "cave</w>": 2289,
      "watching</w>": 2290,
      "pot</w>": 2291,
      "pudd": 2292,
      "sug": 2293,
      "probl": 2294,
      "smiling</w>": 2295,
      "Lis": 2296,
      "rope</w>": 2297,
      "excit": 2298,
      "crayons</w>": 2299,
      "##rs</w>": 2300,
      "follow</w>": 2301,
      "grow</w>": 2302,
      "fea": 2303,
      "##ove</w>": 2304,
      "spid": 2305,
      "promise</w>": 2306,
      "##ortable</w>": 2307,
      "snowman</w>": 2308,
      "coll": 2309,
      "danced</w>": 2310,
      "##ole</w>": 2311,
      "puzz": 2312,
      "storm</w>": 2313,
      "interesting</w>": 2314,
      "##red</w>": 2315,
      "##ast</w>": 2316,
      "sharp</w>": 2317,
      "talked</w>": 2318,
      "person</w>": 2319,
      "sandw": 2320,
      "button</w>": 2321,
      "With</w>": 2322,
      "na": 2323,
      "Hey</w>": 2324,
      "ban": 2325,
      "##een</w>": 2326,
      "##pper</w>": 2327,
      "wide</w>": 2328,
      "treat</w>": 2329,
      "free</w>": 2330,
      "jun": 2331,
      "##andy</w>": 2332,
      "smelled</w>": 2333,
      "honey</w>": 2334,
      "Sometimes</w>": 2335,
      "plan</w>": 2336,
      "##shing</w>": 2337,
      "lovely</w>": 2338,
      "quest": 2339,
      "##epend": 2340,
      "uni": 2341,
      "ap": 2342,
      "apples</w>": 2343,
      "write</w>": 2344,
      "##re</w>": 2345,
      "bush</w>": 2346,
      "adm": 2347,
      "rel": 2348,
      "sur": 2349,
      "shop</w>": 2350,
      "hope</w>": 2351,
      "oc": 2352,
      "healthy</w>": 2353,
      "pract": 2354,
      "dist": 2355,
      "clouds</w>": 2356,
      "shining</w>": 2357,
      "##rated</w>": 2358,
      "##ase</w>": 2359,
      "cup</w>": 2360,
      "fair</w>": 2361,
      "giant</w>": 2362,
      "rolled</w>": 2363,
      "##br": 2364,
      "bru": 2365,
      "##ont</w>": 2366,
      "road</w>": 2367,
      "roo": 2368,
      "##fl": 2369,
      "saf": 2370,
      "##illa": 2371,
      "places</w>": 2372,
      "front</w>": 2373,
      "Emily</w>": 2374,
      "trouble</w>": 2375,
      "##gan": 2376,
      "##leep</w>": 2377,
      "puts</w>": 2378,
      "which</w>": 2379,
      "##ree": 2380,
      "##redi": 2381,
      "##fted</w>": 2382,
      "loves</w>": 2383,
      "villa": 2384,
      "##eer</w>": 2385,
      "##zzy</w>": 2386,
      "spotted</w>": 2387,
      "tun": 2388,
      "##anding</w>": 2389,
      "nec": 2390,
      "##bar": 2391,
      "Bu": 2392,
      "impre": 2393,
      "help": 2394,
      "myst": 2395,
      "organ": 2396,
      "##gle</w>": 2397,
      "##py</w>": 2398,
      "suc": 2399,
      "##bles</w>": 2400,
      "fruit</w>": 2401,
      "Together</w>": 2402,
      "##eo</w>": 2403,
      "tasted</w>": 2404,
      "deli": 2405,
      "bee": 2406,
      "clever</w>": 2407,
      "Twee": 2408,
      "##ella</w>": 2409,
      "prot": 2410,
      "couch</w>": 2411,
      "##ats</w>": 2412,
      "snack</w>": 2413,
      "med": 2414,
      "##ave</w>": 2415,
      "##\".</w>": 2416,
      "coat</w>": 2417,
      "Lisa</w>": 2418,
      "whole</w>": 2419,
      "win</w>": 2420,
      "Go</w>": 2421,
      "##erly</w>": 2422,
      "##dder</w>": 2423,
      "tu": 2424,
      "asleep</w>": 2425,
      "pile</w>": 2426,
      "arm</w>": 2427,
      "spent</w>": 2428,
      "building</w>": 2429,
      "##gers</w>": 2430,
      "##iss": 2431,
      "##med</w>": 2432,
      "knee</w>": 2433,
      "patient</w>": 2434,
      "##ert</w>": 2435,
      "goes</w>": 2436,
      "king</w>": 2437,
      "coin</w>": 2438,
      "mel": 2439,
      "wearing</w>": 2440,
      "spider</w>": 2441,
      "##barra": 2442,
      "Jim</w>": 2443,
      "Mummy</w>": 2444,
      "embarra": 2445,
      "pretended</w>": 2446,
      "##ord</w>": 2447,
      "picn": 2448,
      "##nâ</w>": 2449,
      "dirt</w>": 2450,
      "screamed</w>": 2451,
      "Are</w>": 2452,
      "faces</w>": 2453,
      "phone</w>": 2454,
      "pan": 2455,
      "sack</w>": 2456,
      "snake</w>": 2457,
      "ocean</w>": 2458,
      "confused</w>": 2459,
      "appeared</w>": 2460,
      "Good</w>": 2461,
      "gently</w>": 2462,
      "talking</w>": 2463,
      "Where</w>": 2464,
      "compl": 2465,
      "path</w>": 2466,
      "wild</w>": 2467,
      "furry</w>": 2468,
      "problem</w>": 2469,
      "##olf</w>": 2470,
      "##ws</w>": 2471,
      "cam": 2472,
      "mud</w>": 2473,
      "##ete</w>": 2474,
      "ladder</w>": 2475,
      "helpful</w>": 2476,
      "Jake</w>": 2477,
      "lan": 2478,
      "fur</w>": 2479,
      "bubb": 2480,
      "##tly</w>": 2481,
      "sal": 2482,
      "supp": 2483,
      "ign": 2484,
      "##ocol": 2485,
      "If</w>": 2486,
      "oven</w>": 2487,
      "val": 2488,
      "push</w>": 2489,
      "figh": 2490,
      "spoon</w>": 2491,
      "ash": 2492,
      "whenever</w>": 2493,
      "John": 2494,
      "answer</w>": 2495,
      "##arge</w>": 2496,
      "color</w>": 2497,
      "corner</w>": 2498,
      "chocol": 2499,
      "wom": 2500,
      "Peter</w>": 2501,
      "lay</w>": 2502,
      "##ike</w>": 2503,
      "œW": 2504,
      "pri": 2505,
      "mach": 2506,
      "woman</w>": 2507,
      "it": 2508,
      "blew</w>": 2509,
      "fixed</w>": 2510,
      "sigh": 2511,
      "picnic</w>": 2512,
      "##ale</w>": 2513,
      "spicy</w>": 2514,
      "forgive</w>": 2515,
      "fighting</w>": 2516,
      "waiting</w>": 2517,
      "finish</w>": 2518,
      "wave</w>": 2519,
      "##oons</w>": 2520,
      "tid": 2521,
      "pen": 2522,
      "matter</w>": 2523,
      "##lder</w>": 2524,
      "feet</w>": 2525,
      "tee": 2526,
      "pop": 2527,
      "taste</w>": 2528,
      "bow</w>": 2529,
      "eventually</w>": 2530,
      "teeth</w>": 2531,
      "Teddy</w>": 2532,
      "throw</w>": 2533,
      "last</w>": 2534,
      "trip</w>": 2535,
      "embarrassed</w>": 2536,
      "zoo</w>": 2537,
      "slow</w>": 2538,
      "tomorrow</w>": 2539,
      "drive</w>": 2540,
      "carry</w>": 2541,
      "cookie</w>": 2542,
      "horse</w>": 2543,
      "##ade</w>": 2544,
      "##ared</w>": 2545,
      "##ones</w>": 2546,
      "Here</w>": 2547,
      "call</w>": 2548,
      "smell</w>": 2549,
      "chocolate</w>": 2550,
      "pee": 2551,
      "happen</w>": 2552,
      "While</w>": 2553,
      "##ler</w>": 2554,
      "##ond</w>": 2555,
      "shirt</w>": 2556,
      "env": 2557,
      "tries</w>": 2558,
      "cloud</w>": 2559,
      "##less</w>": 2560,
      "emp": 2561,
      "neck": 2562,
      "large</w>": 2563,
      "songs</w>": 2564,
      "tea</w>": 2565,
      "neckla": 2566,
      "hiding</w>": 2567,
      "banan": 2568,
      "mind</w>": 2569,
      "##as</w>": 2570,
      "##acks</w>": 2571,
      "stru": 2572,
      "plant</w>": 2573,
      "kitten</w>": 2574,
      "cloth</w>": 2575,
      "##urse</w>": 2576,
      "##tr": 2577,
      "shi": 2578,
      "cann": 2579,
      "stick": 2580,
      "##board</w>": 2581,
      "smooth</w>": 2582,
      "pizz": 2583,
      "seek</w>": 2584,
      "empty</w>": 2585,
      "pool</w>": 2586,
      "letter</w>": 2587,
      "##vel</w>": 2588,
      "wash</w>": 2589,
      "shy</w>": 2590,
      "Stop</w>": 2591,
      "plea": 2592,
      "##ishes</w>": 2593,
      "village</w>": 2594,
      "whe": 2595,
      "calm</w>": 2596,
      "##gr": 2597,
      "bugs</w>": 2598,
      "grew</w>": 2599,
      "jungle</w>": 2600,
      "tightly</w>": 2601,
      "creative</w>": 2602,
      "celeb": 2603,
      "cannot</w>": 2604,
      "##ible</w>": 2605,
      "cro": 2606,
      "knocked</w>": 2607,
      "whistle</w>": 2608,
      "vege": 2609,
      "rep": 2610,
      "hid</w>": 2611,
      "may": 2612,
      "##umpy</w>": 2613,
      "hum": 2614,
      "spread</w>": 2615,
      "##ory</w>": 2616,
      "TV</w>": 2617,
      "Johnny</w>": 2618,
      "Hel": 2619,
      "wore</w>": 2620,
      "rude</w>": 2621,
      "wee": 2622,
      "##eeper</w>": 2623,
      "barked</w>": 2624,
      "count</w>": 2625,
      "Everywhere</w>": 2626,
      "fan": 2627,
      "puddle</w>": 2628,
      "sparkly</w>": 2629,
      "necklace</w>": 2630,
      "sail</w>": 2631,
      "Alice</w>": 2632,
      "bell</w>": 2633,
      "hears</w>": 2634,
      "chased</w>": 2635,
      "rob": 2636,
      "pizza</w>": 2637,
      "mountain</w>": 2638,
      "##rots</w>": 2639,
      "Little</w>": 2640,
      "thr": 2641,
      "##ground</w>": 2642,
      "Rex</w>": 2643,
      "grab</w>": 2644,
      "kiss</w>": 2645,
      "det": 2646,
      "##ier</w>": 2647,
      "carrot</w>": 2648,
      "meant</w>": 2649,
      "maybe</w>": 2650,
      "hidden</w>": 2651,
      "band</w>": 2652,
      "puzzle</w>": 2653,
      "cow</w>": 2654,
      "save</w>": 2655,
      "fra": 2656,
      "grou": 2657,
      "meet</w>": 2658,
      "##inted</w>": 2659,
      "treats</w>": 2660,
      "stra": 2661,
      "part</w>": 2662,
      "tidy</w>": 2663,
      "carrots</w>": 2664,
      "worm</w>": 2665,
      "peaceful</w>": 2666,
      "succ": 2667,
      "##gly</w>": 2668,
      "##era</w>": 2669,
      "land</w>": 2670,
      "##sca": 2671,
      "##sty</w>": 2672,
      "##flower</w>": 2673,
      "##ges</w>": 2674,
      "snacks</w>": 2675,
      "sticks</w>": 2676,
      "du": 2677,
      "carried</w>": 2678,
      "rocket</w>": 2679,
      "ant</w>": 2680,
      "missed</w>": 2681,
      "Help</w>": 2682,
      "robot</w>": 2683,
      "sel": 2684,
      "##rank</w>": 2685,
      "moon</w>": 2686,
      "forward</w>": 2687,
      "splash</w>": 2688,
      "av": 2689,
      "tells</w>": 2690,
      "##itch</w>": 2691,
      "Even</w>": 2692,
      "##ated</w>": 2693,
      "##dness</w>": 2694,
      "Sus": 2695,
      "prince</w>": 2696,
      "##itty</w>": 2697,
      "card</w>": 2698,
      "machine</w>": 2699,
      "##bs</w>": 2700,
      "Kitty</w>": 2701,
      "shelf</w>": 2702,
      "gath": 2703,
      "##edi": 2704,
      "##ball</w>": 2705,
      "jumping</w>": 2706,
      "twi": 2707,
      "ugly</w>": 2708,
      "disappo": 2709,
      "meadow</w>": 2710,
      "Leo</w>": 2711,
      "bit": 2712,
      "vi": 2713,
      "##erv": 2714,
      "string</w>": 2715,
      "lem": 2716,
      "##kin</w>": 2717,
      "Who</w>": 2718,
      "teach</w>": 2719,
      "frust": 2720,
      "##sses</w>": 2721,
      "seat</w>": 2722,
      "stood</w>": 2723,
      "gray</w>": 2724,
      "selfish</w>": 2725,
      "Mar": 2726,
      "cook</w>": 2727,
      "yelled</w>": 2728,
      "knowing</w>": 2729,
      "legs</w>": 2730,
      "landed</w>": 2731,
      "scoo": 2732,
      "sharing</w>": 2733,
      "your": 2734,
      "##eed</w>": 2735,
      "##most</w>": 2736,
      "##elling</w>": 2737,
      "present</w>": 2738,
      "pir": 2739,
      "##ens": 2740,
      "##elves</w>": 2741,
      "circ": 2742,
      "group</w>": 2743,
      "stone</w>": 2744,
      "leaf</w>": 2745,
      "cur": 2746,
      "chick": 2747,
      "##ator</w>": 2748,
      "neighbor</w>": 2749,
      "creature</w>": 2750,
      "determ": 2751,
      "standing</w>": 2752,
      "##ak</w>": 2753,
      "drew</w>": 2754,
      "plate</w>": 2755,
      "almost</w>": 2756,
      "gar": 2757,
      "nods</w>": 2758,
      "bath</w>": 2759,
      "sof": 2760,
      "Ro": 2761,
      "œT": 2762,
      "fancy</w>": 2763,
      "frustrated</w>": 2764,
      "Be": 2765,
      "disappointed</w>": 2766,
      "stand</w>": 2767,
      "these</w>": 2768,
      "pig</w>": 2769,
      "powerful</w>": 2770,
      "sleepy</w>": 2771,
      "##ian</w>": 2772,
      "##ser</w>": 2773,
      "##roph": 2774,
      "##ad": 2775,
      "Today</w>": 2776,
      "pill": 2777,
      "##ital</w>": 2778,
      "hours</w>": 2779,
      "polite</w>": 2780,
      "number</w>": 2781,
      "Br": 2782,
      "##ird</w>": 2783,
      "##ected</w>": 2784,
      "bus</w>": 2785,
      "mov": 2786,
      "hosp": 2787,
      "honest</w>": 2788,
      "mysterious</w>": 2789,
      "line</w>": 2790,
      "##ach</w>": 2791,
      "bott": 2792,
      "bird": 2793,
      "##orry</w>": 2794,
      "jew": 2795,
      "medic": 2796,
      "ashamed</w>": 2797,
      "plants</w>": 2798,
      "cries</w>": 2799,
      "##ides</w>": 2800,
      "decor": 2801,
      "us": 2802,
      "##ex": 2803,
      "##eater</w>": 2804,
      "##ecially</w>": 2805,
      "##specially</w>": 2806,
      "hospital</w>": 2807,
      "hard": 2808,
      "##ering</w>": 2809,
      "twir": 2810,
      "returned</w>": 2811,
      "##issors</w>": 2812,
      "understood</w>": 2813,
      "##ual</w>": 2814,
      "scissors</w>": 2815,
      "nerv": 2816,
      "mum": 2817,
      "breath</w>": 2818,
      "medicine</w>": 2819,
      "sea": 2820,
      "mix</w>": 2821,
      "##ensive</w>": 2822,
      "Mark</w>": 2823,
      "sour</w>": 2824,
      "##eak</w>": 2825,
      "protect</w>": 2826,
      "Some</w>": 2827,
      "œI</w>": 2828,
      "##gging</w>": 2829,
      "expensive</w>": 2830,
      "especially</w>": 2831,
      "packed</w>": 2832,
      "remin": 2833,
      "##ev": 2834,
      "gla": 2835,
      "##ist": 2836,
      "ring</w>": 2837,
      "passed</w>": 2838,
      "dancing</w>": 2839,
      "Sorry</w>": 2840,
      "scarf</w>": 2841,
      "##tables</w>": 2842,
      "Your</w>": 2843,
      "bored</w>": 2844,
      "cri": 2845,
      "##ink": 2846,
      "sheep</w>": 2847,
      "leg</w>": 2848,
      "sandwich</w>": 2849,
      "vegetables</w>": 2850,
      "tau": 2851,
      "##alls</w>": 2852,
      "shore</w>": 2853,
      "taught</w>": 2854,
      "Bl": 2855,
      "net</w>": 2856,
      "garage</w>": 2857,
      "##uce</w>": 2858,
      "saved</w>": 2859,
      "flo": 2860,
      "grumpy</w>": 2861,
      "ya": 2862,
      "##illed</w>": 2863,
      "##rig": 2864,
      "closet</w>": 2865,
      "become</w>": 2866,
      "colour": 2867,
      "roll</w>": 2868,
      "ruined</w>": 2869,
      "##cy": 2870,
      "taken</w>": 2871,
      "poor</w>": 2872,
      "##ony</w>": 2873,
      "mot": 2874,
      "gate</w>": 2875,
      "hop</w>": 2876,
      "##ult</w>": 2877,
      "comfortable</w>": 2878,
      "El": 2879,
      "Give</w>": 2880,
      "Susie</w>": 2881,
      "messy</w>": 2882,
      "##ina</w>": 2883,
      "mummy</w>": 2884,
      "cand": 2885,
      "##iddle</w>": 2886,
      "##ops</w>": 2887,
      "finger</w>": 2888,
      "dinos": 2889,
      "##unk</w>": 2890,
      "œY": 2891,
      "bedr": 2892,
      "easy</w>": 2893,
      "ones</w>": 2894,
      "crab</w>": 2895,
      "generous</w>": 2896,
      "pleased</w>": 2897,
      "pain</w>": 2898,
      "##ber</w>": 2899,
      "asking</w>": 2900,
      "chan": 2901,
      "working</w>": 2902,
      "##ggle</w>": 2903,
      "##light</w>": 2904,
      "yourself</w>": 2905,
      "bedroom</w>": 2906,
      "giggled</w>": 2907,
      "hopping</w>": 2908,
      "glue</w>": 2909,
      "balls</w>": 2910,
      "sailed</w>": 2911,
      "determined</w>": 2912,
      "##xes</w>": 2913,
      "fig": 2914,
      "boring</w>": 2915,
      "mail": 2916,
      "##utes</w>": 2917,
      "mist": 2918,
      "##body</w>": 2919,
      "vase</w>": 2920,
      "wagged</w>": 2921,
      "of": 2922,
      "kissed</w>": 2923,
      "mistake</w>": 2924,
      "Be</w>": 2925,
      "often</w>": 2926,
      "dest": 2927,
      "thank": 2928,
      "sighed</w>": 2929,
      "esca": 2930,
      "##tched</w>": 2931,
      "##ize</w>": 2932,
      "block</w>": 2933,
      "true</w>": 2934,
      "minutes</w>": 2935,
      "œTh": 2936,
      "##tered</w>": 2937,
      "brush</w>": 2938,
      "nervous</w>": 2939,
      "mail</w>": 2940,
      "playground</w>": 2941,
      "answered</w>": 2942,
      "##ates</w>": 2943,
      "feed</w>": 2944,
      "waves</w>": 2945,
      "##illi": 2946,
      "boys</w>": 2947,
      "spin</w>": 2948,
      "chest</w>": 2949,
      "gathered</w>": 2950,
      "fake</w>": 2951,
      "##cycle</w>": 2952,
      "gun</w>": 2953,
      "tears</w>": 2954,
      "he": 2955,
      "thankful</w>": 2956,
      "##ano</w>": 2957,
      "middle</w>": 2958,
      "##selves</w>": 2959,
      "shoo": 2960,
      "too": 2961,
      "##zz</w>": 2962,
      "butter</w>": 2963,
      "##ife</w>": 2964,
      "##iness</w>": 2965,
      "roar</w>": 2966,
      "##pil": 2967,
      "gets</w>": 2968,
      "excitement</w>": 2969,
      "##ero": 2970,
      "questions</w>": 2971,
      "##ub</w>": 2972,
      "eggs</w>": 2973,
      "##cer</w>": 2974,
      "##sk</w>": 2975,
      "skipped</w>": 2976,
      "shell</w>": 2977,
      "ship</w>": 2978,
      "fridge</w>": 2979,
      "##ain": 2980,
      "smelly</w>": 2981,
      "change</w>": 2982,
      "wro": 2983,
      "lock</w>": 2984,
      "##sting</w>": 2985,
      "police</w>": 2986,
      "rela": 2987,
      "wrote</w>": 2988,
      "Ell": 2989,
      "eld": 2990,
      "##kers</w>": 2991,
      "drawing</w>": 2992,
      "œL": 2993,
      "lit</w>": 2994,
      "covered</w>": 2995,
      "##ggy</w>": 2996,
      "fruits</w>": 2997,
      "discovered</w>": 2998,
      "kic": 2999,
      "##rum</w>": 3000,
      "test</w>": 3001,
      "bridge</w>": 3002,
      "Ella</w>": 3003,
      "lazy</w>": 3004,
      "migh": 3005,
      "##aged</w>": 3006,
      "mir": 3007,
      "dogs</w>": 3008,
      "bathroom</w>": 3009,
      "##zard</w>": 3010,
      "shows</w>": 3011,
      "knife</w>": 3012,
      "sil": 3013,
      "match</w>": 3014,
      "fluffy</w>": 3015,
      "queen</w>": 3016,
      "Mrs</w>": 3017,
      "##ke": 3018,
      "##ect": 3019,
      "sweetie</w>": 3020,
      "wolf</w>": 3021,
      "famous</w>": 3022,
      "mighty</w>": 3023,
      "drank</w>": 3024,
      "bake</w>": 3025,
      "picks</w>": 3026,
      "distance</w>": 3027,
      "mic": 3028,
      "nod</w>": 3029,
      "res": 3030,
      "weak</w>": 3031,
      "##ca": 3032,
      "disappeared</w>": 3033,
      "deer</w>": 3034,
      "lying</w>": 3035,
      "zoom</w>": 3036,
      "scra": 3037,
      "##dbo": 3038,
      "drum</w>": 3039,
      "cater": 3040,
      "Eventually</w>": 3041,
      "towel</w>": 3042,
      "##ror</w>": 3043,
      "unus": 3044,
      "walks</w>": 3045,
      "elderly</w>": 3046,
      "unusual</w>": 3047,
      "calling</w>": 3048,
      "moving</w>": 3049,
      "bone</w>": 3050,
      "œI": 3051,
      "eager</w>": 3052,
      "stran": 3053,
      "pour": 3054,
      "wheel</w>": 3055,
      "board</w>": 3056,
      "##stic</w>": 3057,
      "decide</w>": 3058,
      "respect</w>": 3059,
      "wood</w>": 3060,
      "##orm</w>": 3061,
      "lose</w>": 3062,
      "ind": 3063,
      "tag</w>": 3064,
      "stron": 3065,
      "stones</w>": 3066,
      "cleaned</w>": 3067,
      "jea": 3068,
      "scre": 3069,
      "real": 3070,
      "content</w>": 3071,
      "splashed</w>": 3072,
      "##mes</w>": 3073,
      "End</w>": 3074,
      "fish": 3075,
      "##uts</w>": 3076,
      "##iled</w>": 3077,
      "cage</w>": 3078,
      "Sn": 3079,
      "##imed</w>": 3080,
      "map</w>": 3081,
      "##etâ</w>": 3082,
      "incredi": 3083,
      "##pillar</w>": 3084,
      "belon": 3085,
      "feathers</w>": 3086,
      "banana</w>": 3087,
      "##tting</w>": 3088,
      "team</w>": 3089,
      "offered</w>": 3090,
      "Pete</w>": 3091,
      "hoo": 3092,
      "##iding</w>": 3093,
      "##umbled</w>": 3094,
      "caterpillar</w>": 3095,
      "yours</w>": 3096,
      "##ail</w>": 3097,
      "##ars</w>": 3098,
      "live</w>": 3099,
      "##own": 3100,
      "kindness</w>": 3101,
      "##ie": 3102,
      "juicy</w>": 3103,
      "coins</w>": 3104,
      "zoo": 3105,
      "brilli": 3106,
      "Tweety</w>": 3107,
      "celebra": 3108,
      "pillow</w>": 3109,
      "jeal": 3110,
      "See</w>": 3111,
      "tel": 3112,
      "choo": 3113,
      "branches</w>": 3114,
      "egg</w>": 3115,
      "eye</w>": 3116,
      "tent</w>": 3117,
      "tape</w>": 3118,
      "##air</w>": 3119,
      "all": 3120,
      "father</w>": 3121,
      "organized</w>": 3122,
      "mirror</w>": 3123,
      "Fred</w>": 3124,
      "##bo</w>": 3125,
      "body</w>": 3126,
      "clown</w>": 3127,
      "break": 3128,
      "bottom</w>": 3129,
      "jealous</w>": 3130,
      "nic": 3131,
      "tie</w>": 3132,
      "##lies</w>": 3133,
      "##ination</w>": 3134,
      "lift</w>": 3135,
      "adventur": 3136,
      "crawled</w>": 3137,
      "hurts</w>": 3138,
      "tunn": 3139,
      "balance</w>": 3140,
      "pay</w>": 3141,
      "ins": 3142,
      "colourful</w>": 3143,
      "Bella</w>": 3144,
      "impressed</w>": 3145,
      "bubbles</w>": 3146,
      "brilliant</w>": 3147,
      "breakf": 3148,
      "licked</w>": 3149,
      "##gest</w>": 3150,
      "once</w>": 3151,
      "fine</w>": 3152,
      "crown</w>": 3153,
      "glass</w>": 3154,
      "breakfast</w>": 3155,
      "lamp</w>": 3156,
      "##ker</w>": 3157,
      "##olog": 3158,
      "incredible</w>": 3159,
      "tiger</w>": 3160,
      "foot</w>": 3161,
      "neck</w>": 3162,
      "clear</w>": 3163,
      "##ship</w>": 3164,
      "trucks</w>": 3165,
      "tough</w>": 3166,
      "rare</w>": 3167,
      "##lish</w>": 3168,
      "##pack</w>": 3169,
      "thin</w>": 3170,
      "libr": 3171,
      "boxes</w>": 3172,
      "ligh": 3173,
      "joke</w>": 3174,
      "happening</w>": 3175,
      "smoke</w>": 3176,
      "apolog": 3177,
      "ok</w>": 3178,
      "rough</w>": 3179,
      "cab": 3180,
      "managed</w>": 3181,
      "?\".</w>": 3182,
      "wagon</w>": 3183,
      "sugar</w>": 3184,
      "realised</w>": 3185,
      "aw": 3186,
      "fill</w>": 3187,
      "pil": 3188,
      "##aur": 3189,
      "soap</w>": 3190,
      "favour": 3191,
      "wrapped</w>": 3192,
      "bitter</w>": 3193,
      "adventurous</w>": 3194,
      "falls</w>": 3195,
      "flute</w>": 3196,
      "noisy</w>": 3197,
      "pie</w>": 3198,
      "check</w>": 3199,
      "chase</w>": 3200,
      "added</w>": 3201,
      "fre": 3202,
      "measure</w>": 3203,
      "favourite</w>": 3204,
      "dig</w>": 3205,
      "dizzy</w>": 3206,
      "diam": 3207,
      "mixed</w>": 3208,
      "##ependable</w>": 3209,
      "circles</w>": 3210,
      "thick</w>": 3211,
      "œWh": 3212,
      "Bobo</w>": 3213,
      "market</w>": 3214,
      "safely</w>": 3215,
      "firem": 3216,
      "louder</w>": 3217,
      "##ion": 3218,
      "lifted</w>": 3219,
      "knight</w>": 3220,
      "needs</w>": 3221,
      "##edly</w>": 3222,
      "##ately</w>": 3223,
      "word</w>": 3224,
      "Sh": 3225,
      "dependable</w>": 3226,
      "ter": 3227,
      "##aur</w>": 3228,
      "again": 3229,
      "snu": 3230,
      "magn": 3231,
      "jam</w>": 3232,
      "##ron</w>": 3233,
      "##ato</w>": 3234,
      "pointing</w>": 3235,
      "ears</w>": 3236,
      "air": 3237,
      "berries</w>": 3238,
      "wand</w>": 3239,
      "dreamed</w>": 3240,
      "##tâ</w>": 3241,
      "##ured</w>": 3242,
      "Whenever</w>": 3243,
      "cheerful</w>": 3244,
      "grandpa</w>": 3245,
      "moms</w>": 3246,
      "foolish</w>": 3247,
      "against</w>": 3248,
      "Well</w>": 3249,
      "##que</w>": 3250,
      "paw</w>": 3251,
      "giving</w>": 3252,
      "Ne": 3253,
      "trunk</w>": 3254,
      "sugge": 3255,
      "Mandy</w>": 3256,
      "small": 3257,
      "bags</w>": 3258,
      "chang": 3259,
      "obedi": 3260,
      "movie</w>": 3261,
      "##aring</w>": 3262,
      "balloons</w>": 3263,
      "belong</w>": 3264,
      "dreams</w>": 3265,
      "soldi": 3266,
      "belonged</w>": 3267,
      "Li": 3268,
      "##ist</w>": 3269,
      "##arn</w>": 3270,
      "learning</w>": 3271,
      "##land</w>": 3272,
      "##laimed</w>": 3273,
      "##ghtful</w>": 3274,
      "step</w>": 3275,
      "dinosaur</w>": 3276,
      "stronger</w>": 3277,
      "edge</w>": 3278,
      "##appy</w>": 3279,
      "##yal</w>": 3280,
      "##aying</w>": 3281,
      "dolph": 3282,
      "whisp": 3283,
      "Cl": 3284,
      "fall": 3285,
      "exclaimed</w>": 3286,
      "blu": 3287,
      "shake</w>": 3288,
      "search</w>": 3289,
      "reli": 3290,
      "yarn</w>": 3291,
      "##rying</w>": 3292,
      "##oppy</w>": 3293,
      "slipped</w>": 3294,
      "flag</w>": 3295,
      "unique</w>": 3296,
      "Nem": 3297,
      "##head</w>": 3298,
      "hats</w>": 3299,
      "char": 3300,
      "desig": 3301,
      "choose</w>": 3302,
      "Nemo</w>": 3303,
      "##ment</w>": 3304,
      "##ills</w>": 3305,
      "happiness</w>": 3306,
      "grown</w>": 3307,
      "sli": 3308,
      "loudly</w>": 3309,
      "enjoying</w>": 3310,
      "Pau": 3311,
      "##port</w>": 3312,
      "##rac": 3313,
      "spun</w>": 3314,
      "sword</w>": 3315,
      "cart</w>": 3316,
      "##tic</w>": 3317,
      "tools</w>": 3318,
      "laughs</w>": 3319,
      "squee": 3320,
      "rich</w>": 3321,
      "Blue</w>": 3322,
      "reliable</w>": 3323,
      "walls</w>": 3324,
      "camera</w>": 3325,
      "##dom</w>": 3326,
      "##erve</w>": 3327,
      "borrow</w>": 3328,
      "cer": 3329,
      "##gel</w>": 3330,
      "alrea": 3331,
      "mod": 3332,
      "Bobby</w>": 3333,
      "Dave</w>": 3334,
      "crayon</w>": 3335,
      "cleaning</w>": 3336,
      "terri": 3337,
      "already</w>": 3338,
      "angel</w>": 3339,
      "trust</w>": 3340,
      "diffic": 3341,
      "shark</w>": 3342,
      "means</w>": 3343,
      "useful</w>": 3344,
      "is": 3345,
      "pump": 3346,
      "buttons</w>": 3347,
      "painting</w>": 3348,
      "##dows</w>": 3349,
      "loyal</w>": 3350,
      "pin": 3351,
      "using</w>": 3352,
      "##ssage</w>": 3353,
      "mix": 3354,
      "independ": 3355,
      "clay</w>": 3356,
      "##oph": 3357,
      "hero</w>": 3358,
      "##ghtened</w>": 3359,
      "Next</w>": 3360,
      "##ind": 3361,
      "bushes</w>": 3362,
      "turtle</w>": 3363,
      "wonder</w>": 3364,
      "barn</w>": 3365,
      "stubb": 3366,
      "tunnel</w>": 3367,
      "helps</w>": 3368,
      "unl": 3369,
      "circle</w>": 3370,
      "norm": 3371,
      "##kets</w>": 3372,
      "chea": 3373,
      "clap</w>": 3374,
      "penc": 3375,
      "##keeper</w>": 3376,
      "jog</w>": 3377,
      "fier": 3378,
      "difficult</w>": 3379,
      "Ducky</w>": 3380,
      "painted</w>": 3381,
      "pean": 3382,
      "nosy</w>": 3383,
      "sounded</w>": 3384,
      "figure</w>": 3385,
      "Mil": 3386,
      "times</w>": 3387,
      "cup": 3388,
      "guit": 3389,
      "obedient</w>": 3390,
      "Rose</w>": 3391,
      "pen</w>": 3392,
      "whale</w>": 3393,
      "extr": 3394,
      "##ature</w>": 3395,
      "##etit": 3396,
      "counted</w>": 3397,
      "office</w>": 3398,
      "extra</w>": 3399,
      "Un": 3400,
      "four</w>": 3401,
      "thir": 3402,
      "bald</w>": 3403,
      "dove</w>": 3404,
      "competit": 3405,
      "at": 3406,
      "hal": 3407,
      "diamond</w>": 3408,
      "Me</w>": 3409,
      "thoughtful</w>": 3410,
      "wealthy</w>": 3411,
      "birdie</w>": 3412,
      "##ular</w>": 3413,
      "##wards</w>": 3414,
      "knows</w>": 3415,
      "Grandpa</w>": 3416,
      "frag": 3417,
      "stubborn</w>": 3418,
      "rh": 3419,
      "invited</w>": 3420,
      "##ado</w>": 3421,
      "normal</w>": 3422,
      "saying</w>": 3423,
      "explored</w>": 3424,
      "joined</w>": 3425,
      "skin</w>": 3426,
      "sight</w>": 3427,
      "parrot</w>": 3428,
      "##shion</w>": 3429,
      "icy</w>": 3430,
      "##cient</w>": 3431,
      "##inning</w>": 3432,
      "##utting</w>": 3433,
      "notice</w>": 3434,
      "To</w>": 3435,
      "Will</w>": 3436,
      "sunflower</w>": 3437,
      "weird</w>": 3438,
      "numbers</w>": 3439,
      "##time</w>": 3440,
      "pass": 3441,
      "collect</w>": 3442,
      "pirate</w>": 3443,
      "independent</w>": 3444,
      "##inary</w>": 3445,
      "##ith": 3446,
      "bossy</w>": 3447,
      "##ich": 3448,
      "brothers</w>": 3449,
      "##oes</w>": 3450,
      "mole</w>": 3451,
      "prep": 3452,
      "built</w>": 3453,
      "harder</w>": 3454,
      "smaller</w>": 3455,
      "Ra": 3456,
      "cross</w>": 3457,
      "hou": 3458,
      "tank</w>": 3459,
      "ancient</w>": 3460,
      "scream</w>": 3461,
      "spoiled</w>": 3462,
      "fat</w>": 3463,
      "##ines</w>": 3464,
      "stri": 3465,
      "shout</w>": 3466,
      "gas": 3467,
      "stairs</w>": 3468,
      "valu": 3469,
      "stumbled</w>": 3470,
      "picking</w>": 3471,
      "march</w>": 3472,
      "chicken</w>": 3473,
      "lights</w>": 3474,
      "fierce</w>": 3475,
      "fragile</w>": 3476,
      "sauce</w>": 3477,
      "##elope</w>": 3478,
      "exam": 3479,
      "swan</w>": 3480,
      "enorm": 3481,
      "rug</w>": 3482,
      "guitar</w>": 3483,
      "fountain</w>": 3484,
      "cact": 3485,
      "goat</w>": 3486,
      "success": 3487,
      "escape</w>": 3488,
      "enormous</w>": 3489,
      "##unt</w>": 3490,
      "resc": 3491,
      "law": 3492,
      "miss</w>": 3493,
      "seeds</w>": 3494,
      "poured</w>": 3495,
      "houses</w>": 3496,
      "Soph": 3497,
      "free": 3498,
      "##ple</w>": 3499,
      "##ork</w>": 3500,
      "##ghted</w>": 3501,
      "gold</w>": 3502,
      "island</w>": 3503,
      "kick</w>": 3504,
      "##ldnâ</w>": 3505,
      "##pid</w>": 3506,
      "ham": 3507,
      "rode</w>": 3508,
      "##tten</w>": 3509,
      "reminded</w>": 3510,
      "Ge": 3511,
      "##erg": 3512,
      "trump": 3513,
      "##bble</w>": 3514,
      "cost": 3515,
      "proudly</w>": 3516,
      "cudd": 3517,
      "kinds</w>": 3518,
      "practice</w>": 3519,
      "bum": 3520,
      "pal": 3521,
      "hose</w>": 3522,
      "city</w>": 3523,
      "penny</w>": 3524,
      "##ack": 3525,
      "ways</w>": 3526,
      "frightened</w>": 3527,
      "bounce</w>": 3528,
      "tummy</w>": 3529,
      "##bled</w>": 3530,
      "wake</w>": 3531,
      "##eless</w>": 3532,
      "stea": 3533,
      "shells</w>": 3534,
      "chose</w>": 3535,
      "fingers</w>": 3536,
      "searching</w>": 3537,
      "after": 3538,
      "solve</w>": 3539,
      "admired</w>": 3540,
      "Geor": 3541,
      "##wb": 3542,
      "showing</w>": 3543,
      "log</w>": 3544,
      "##ola</w>": 3545,
      "chir": 3546,
      "flash": 3547,
      "delighted</w>": 3548,
      "cone</w>": 3549,
      "stupid</w>": 3550,
      "wrap</w>": 3551,
      "Ow</w>": 3552,
      "ran": 3553,
      "##isted</w>": 3554,
      "boats</w>": 3555,
      "ear</w>": 3556,
      "Ellie</w>": 3557,
      "coc": 3558,
      "dull</w>": 3559,
      "nurse</w>": 3560,
      "##ti</w>": 3561,
      "stage</w>": 3562,
      "##rage</w>": 3563,
      "above</w>": 3564,
      "barber</w>": 3565,
      "excitedly</w>": 3566,
      "power</w>": 3567,
      "lizard</w>": 3568,
      "space</w>": 3569,
      "compa": 3570,
      "strawb": 3571,
      "suggested</w>": 3572,
      "George</w>": 3573,
      "horn</w>": 3574,
      "shone</w>": 3575,
      "terrible</w>": 3576,
      "valuable</w>": 3577,
      "Polly</w>": 3578,
      "locked</w>": 3579,
      "spilled</w>": 3580,
      "##ems</w>": 3581,
      "shape</w>": 3582,
      "salad</w>": 3583,
      "cactus</w>": 3584,
      "act</w>": 3585,
      "blueb": 3586,
      "attic</w>": 3587,
      "##ara</w>": 3588,
      "stir": 3589,
      "bull</w>": 3590,
      "Sm": 3591,
      "clum": 3592,
      "fire": 3593,
      "spray</w>": 3594,
      "kicked</w>": 3595,
      "fresh</w>": 3596,
      "thirsty</w>": 3597,
      "successful</w>": 3598,
      "Sandy</w>": 3599,
      "orig": 3600,
      "yet</w>": 3601,
      "##tters</w>": 3602,
      "##box</w>": 3603,
      "half</w>": 3604,
      "##inal</w>": 3605,
      "cover</w>": 3606,
      "roof</w>": 3607,
      "Paul</w>": 3608,
      "pet": 3609,
      "##anda</w>": 3610,
      "trumpet</w>": 3611,
      "beak</w>": 3612,
      "stove</w>": 3613,
      "##etti</w>": 3614,
      "Lola</w>": 3615,
      "##gue</w>": 3616,
      "##tions</w>": 3617,
      "Alex</w>": 3618,
      "##gular</w>": 3619,
      "envelope</w>": 3620,
      "##mselves</w>": 3621,
      "##com": 3622,
      "witch</w>": 3623,
      "themselves</w>": 3624,
      "regular</w>": 3625,
      "sni": 3626,
      "harm": 3627,
      "flashlight</w>": 3628,
      "##agh": 3629,
      "##cc": 3630,
      "thun": 3631,
      "stops</w>": 3632,
      "spl": 3633,
      "brightly</w>": 3634,
      "original</w>": 3635,
      "##aghetti</w>": 3636,
      "son</w>": 3637,
      "##den</w>": 3638,
      "##per": 3639,
      "raced</w>": 3640,
      "dreaming</w>": 3641,
      "screen</w>": 3642,
      "zi": 3643,
      "bees</w>": 3644,
      "ending</w>": 3645,
      "aid</w>": 3646,
      "washed</w>": 3647,
      "spaghetti</w>": 3648,
      "Andy</w>": 3649,
      "wiped</w>": 3650,
      "changed</w>": 3651,
      "##corn</w>": 3652,
      "##dinary</w>": 3653,
      "chec": 3654,
      "Joey</w>": 3655,
      "delicate</w>": 3656,
      "stickers</w>": 3657,
      "helm": 3658,
      "warned</w>": 3659,
      "rushed</w>": 3660,
      "beetle</w>": 3661,
      "Kim</w>": 3662,
      "Red</w>": 3663,
      "##cu": 3664,
      "those</w>": 3665,
      "##oors</w>": 3666,
      "compass": 3667,
      "mem": 3668,
      "yog": 3669,
      "hay</w>": 3670,
      "carp": 3671,
      "add</w>": 3672,
      "leaving</w>": 3673,
      "clumsy</w>": 3674,
      "##ggest</w>": 3675,
      "##oomy</w>": 3676,
      "biggest</w>": 3677,
      "popcorn</w>": 3678,
      "enc": 3679,
      "##ssive</w>": 3680,
      "finding</w>": 3681,
      "pumpkin</w>": 3682,
      "dead</w>": 3683,
      "pan</w>": 3684,
      "##kn": 3685,
      "##ision</w>": 3686,
      "ing": 3687,
      "##atâ</w>": 3688,
      "dough</w>": 3689,
      "##uth</w>": 3690,
      "flex": 3691,
      "scare</w>": 3692,
      "Gra": 3693,
      "telling</w>": 3694,
      "##as": 3695,
      "friend": 3696,
      "snee": 3697,
      "library</w>": 3698,
      "cereal</w>": 3699,
      "ingredi": 3700,
      "Ru": 3701,
      "corn</w>": 3702,
      "serious</w>": 3703,
      "##arry</w>": 3704,
      "sorts</w>": 3705,
      "##tw": 3706,
      "toast</w>": 3707,
      "##robe</w>": 3708,
      "meal</w>": 3709,
      "guil": 3710,
      "early</w>": 3711,
      "imagined</w>": 3712,
      "peeked</w>": 3713,
      "gem</w>": 3714,
      "hairy</w>": 3715,
      "spend</w>": 3716,
      "missing</w>": 3717,
      "persist": 3718,
      "desk</w>": 3719,
      "view</w>": 3720,
      "counting</w>": 3721,
      "##ither</w>": 3722,
      "ingredients</w>": 3723,
      "!\".</w>": 3724,
      "jac": 3725,
      "careless</w>": 3726,
      "advice</w>": 3727,
      "foot": 3728,
      "jacket</w>": 3729,
      "Would</w>": 3730,
      "uncle</w>": 3731,
      "pass</w>": 3732,
      "Toby</w>": 3733,
      "ow</w>": 3734,
      "##ero</w>": 3735,
      "does": 3736,
      "ref": 3737,
      "pale</w>": 3738,
      "forth</w>": 3739,
      "destro": 3740,
      "stranger</w>": 3741,
      "cheap</w>": 3742,
      "flexible</w>": 3743,
      "kid</w>": 3744,
      "sy": 3745,
      "##onâ</w>": 3746,
      "eas": 3747,
      "graceful</w>": 3748,
      "Tweetie</w>": 3749,
      "met": 3750,
      "hipp": 3751,
      "##uring</w>": 3752,
      "playful</w>": 3753,
      "thinking</w>": 3754,
      "pige": 3755,
      "suit</w>": 3756,
      "sudden</w>": 3757,
      "delight</w>": 3758,
      "driving</w>": 3759,
      "humble</w>": 3760,
      "hoop</w>": 3761,
      "guilty</w>": 3762,
      "whispered</w>": 3763,
      "band": 3764,
      "jolly</w>": 3765,
      "##oa</w>": 3766,
      "##ash</w>": 3767,
      "cards</w>": 3768,
      "carrying</w>": 3769,
      "Ann</w>": 3770,
      "slides</w>": 3771,
      "opens</w>": 3772,
      "collar</w>": 3773,
      "pepper</w>": 3774,
      "create</w>": 3775,
      "print</w>": 3776,
      "impressive</w>": 3777,
      "nicely</w>": 3778,
      "##cel": 3779,
      "##cod": 3780,
      "twirled</w>": 3781,
      "##aff": 3782,
      "hunter</w>": 3783,
      "sparkled</w>": 3784,
      "allowed</w>": 3785,
      "low</w>": 3786,
      "##tching</w>": 3787,
      "##illa</w>": 3788,
      "popular</w>": 3789,
      "sticker</w>": 3790,
      "um": 3791,
      "sna": 3792,
      "bracel": 3793,
      "umbr": 3794,
      "era": 3795,
      "tied</w>": 3796,
      "anx": 3797,
      "unkn": 3798,
      "##plane</w>": 3799,
      "rubb": 3800,
      "##comf": 3801,
      "stream</w>": 3802,
      "##alk</w>": 3803,
      "tick": 3804,
      "disgu": 3805,
      "rubbed</w>": 3806,
      "giraff": 3807,
      "uncomf": 3808,
      "carpet</w>": 3809,
      "aunt</w>": 3810,
      "men": 3811,
      "cooking</w>": 3812,
      "book": 3813,
      "charming</w>": 3814,
      "persistent</w>": 3815,
      "uncomfortable</w>": 3816,
      "##the</w>": 3817,
      "##ils</w>": 3818,
      "shocked</w>": 3819,
      "perm": 3820,
      "holds</w>": 3821,
      "Mike</w>": 3822,
      "cran": 3823,
      "gh": 3824,
      "scat": 3825,
      "refused</w>": 3826,
      "intell": 3827,
      "pot": 3828,
      "metal</w>": 3829,
      "intellig": 3830,
      "Bye</w>": 3831,
      "butterflies</w>": 3832,
      "frow": 3833,
      "dolphin</w>": 3834,
      "thunder</w>": 3835,
      "unknown</w>": 3836,
      "crocod": 3837,
      "celebrate</w>": 3838,
      "gasped</w>": 3839,
      "##tches</w>": 3840,
      "##pers</w>": 3841,
      "eng": 3842,
      "patter": 3843,
      "pasta</w>": 3844,
      "pants</w>": 3845,
      "friendship</w>": 3846,
      "doesn</w>": 3847,
      "wing</w>": 3848,
      "spinning</w>": 3849,
      "##angar": 3850,
      "wheels</w>": 3851,
      "kangar": 3852,
      "nature</w>": 3853,
      "sink</w>": 3854,
      "zip</w>": 3855,
      "stat": 3856,
      "pack": 3857,
      "chasing</w>": 3858,
      "gum</w>": 3859,
      "##ggling</w>": 3860,
      "moder": 3861,
      "ignor": 3862,
      "pencil</w>": 3863,
      "led</w>": 3864,
      "names</w>": 3865,
      "fork</w>": 3866,
      "##eps</w>": 3867,
      "handed</w>": 3868,
      "patch</w>": 3869,
      "ordinary</w>": 3870,
      "œLetâ</w>": 3871,
      "hippo</w>": 3872,
      "anxious</w>": 3873,
      "##arian</w>": 3874,
      "handle</w>": 3875,
      "nap": 3876,
      "encou": 3877,
      "impat": 3878,
      "cocoa</w>": 3879,
      "growing</w>": 3880,
      "less</w>": 3881,
      "lead</w>": 3882,
      "goose</w>": 3883,
      "pho": 3884,
      "##ghter</w>": 3885,
      "trap</w>": 3886,
      "rat</w>": 3887,
      "##par": 3888,
      "week</w>": 3889,
      "bent</w>": 3890,
      "slid</w>": 3891,
      "truth</w>": 3892,
      "treas": 3893,
      "whist": 3894,
      "prize</w>": 3895,
      "harmless</w>": 3896,
      "Grace</w>": 3897,
      "Ba": 3898,
      "tooth</w>": 3899,
      "##ffee</w>": 3900,
      "crazy</w>": 3901,
      "sleeping</w>": 3902,
      "feather</w>": 3903,
      "snuggled</w>": 3904,
      "Millie</w>": 3905,
      "##iches</w>": 3906,
      "troph": 3907,
      "scale</w>": 3908,
      "rece": 3909,
      "restaur": 3910,
      "modern</w>": 3911,
      "##ging</w>": 3912,
      "math</w>": 3913,
      "beauty</w>": 3914,
      "trash</w>": 3915,
      "attrac": 3916,
      "Brown": 3917,
      "fireman</w>": 3918,
      "intelligent</w>": 3919,
      "Brownie</w>": 3920,
      "##rim": 3921,
      "##ection</w>": 3922,
      "reind": 3923,
      "clock</w>": 3924,
      "placed</w>": 3925,
      "seem</w>": 3926,
      "Snow": 3927,
      "##ionate</w>": 3928,
      "magnet</w>": 3929,
      "crane</w>": 3930,
      "Pa": 3931,
      "##very</w>": 3932,
      "shine</w>": 3933,
      "skip</w>": 3934,
      "spoke</w>": 3935,
      "lemon</w>": 3936,
      "split</w>": 3937,
      "compassionate</w>": 3938,
      "lol": 3939,
      "past</w>": 3940,
      "##lip": 3941,
      "hammer</w>": 3942,
      "sniff": 3943,
      "disgusting</w>": 3944,
      "ignorant</w>": 3945,
      "fear</w>": 3946,
      "tem": 3947,
      "hair": 3948,
      "sofa</w>": 3949,
      "umbrella</w>": 3950,
      "ghost</w>": 3951,
      "restaurant</w>": 3952,
      "ahead</w>": 3953,
      "cart": 3954,
      "starts</w>": 3955,
      "shoe</w>": 3956,
      "wheat</w>": 3957,
      "lollip": 3958,
      "van": 3959,
      "##ject</w>": 3960,
      "sandwiches</w>": 3961,
      "distant</w>": 3962,
      "aftern": 3963,
      "waff": 3964,
      "spi": 3965,
      "grow": 3966,
      "rad": 3967,
      "travel</w>": 3968,
      "drawer</w>": 3969,
      "question</w>": 3970,
      "yaw": 3971,
      "candle</w>": 3972,
      "jelly</w>": 3973,
      "chance</w>": 3974,
      "triang": 3975,
      "##verse</w>": 3976,
      "bracelet</w>": 3977,
      "reindeer</w>": 3978,
      "rules</w>": 3979,
      "dug</w>": 3980,
      "pigeon</w>": 3981,
      "kangaroo</w>": 3982,
      "afternoon</w>": 3983,
      "##oe</w>": 3984,
      "arrow</w>": 3985,
      "flour</w>": 3986,
      "twig</w>": 3987,
      "Maria</w>": 3988,
      "purse</w>": 3989,
      "##uter</w>": 3990,
      "##ung</w>": 3991,
      "couldnâ</w>": 3992,
      "coffee</w>": 3993,
      "impatient</w>": 3994,
      "sin": 3995,
      "leop": 3996,
      "cord</w>": 3997,
      "cupboard</w>": 3998,
      "##ob</w>": 3999,
      "##erable</w>": 4000,
      "guard</w>": 4001,
      "restless</w>": 4002,
      "shoot</w>": 4003,
      "trophy</w>": 4004,
      "Bunny</w>": 4005,
      "fan</w>": 4006,
      "fold</w>": 4007,
      "##tion": 4008,
      "gifted</w>": 4009,
      "jumps</w>": 4010,
      "return</w>": 4011,
      "sym": 4012,
      "Dan": 4013,
      "fu": 4014,
      "gor": 4015,
      "vol": 4016,
      "sadly</w>": 4017,
      "shrim": 4018,
      "cats</w>": 4019,
      "note</w>": 4020,
      "miserable</w>": 4021,
      "bark</w>": 4022,
      "oli": 4023,
      "##inoc": 4024,
      "shut</w>": 4025,
      "mush": 4026,
      "pretending</w>": 4027,
      "harsh</w>": 4028,
      "Before</w>": 4029,
      "Sophie</w>": 4030,
      "crocodile</w>": 4031,
      "itself</w>": 4032,
      "##ices</w>": 4033,
      "impro": 4034,
      "further</w>": 4035,
      "melon</w>": 4036,
      "##ress</w>": 4037,
      "muff": 4038,
      "comb</w>": 4039,
      "anywhere</w>": 4040,
      "five</w>": 4041,
      "computer</w>": 4042,
      "##vering</w>": 4043,
      "Tweet</w>": 4044,
      "practiced</w>": 4045,
      "ton": 4046,
      "creatures</w>": 4047,
      "shield</w>": 4048,
      "cricket</w>": 4049,
      "##owever</w>": 4050,
      "##chy</w>": 4051,
      "jug</w>": 4052,
      "enth": 4053,
      "towers</w>": 4054,
      "mailbox</w>": 4055,
      "Buddy</w>": 4056,
      "œYes</w>": 4057,
      "dea": 4058,
      "jeep</w>": 4059,
      "mark</w>": 4060,
      "rice</w>": 4061,
      "##sta": 4062,
      "reading</w>": 4063,
      "cooler</w>": 4064,
      "pilot</w>": 4065,
      "Rea": 4066,
      "sell</w>": 4067,
      "wishes</w>": 4068,
      "station</w>": 4069,
      "parade</w>": 4070,
      "rose</w>": 4071,
      "envious</w>": 4072,
      "ax": 4073,
      "dish</w>": 4074,
      "kee": 4075,
      "lu": 4076,
      "otter</w>": 4077,
      "##ached</w>": 4078,
      "##case</w>": 4079,
      "goal</w>": 4080,
      "forgave</w>": 4081,
      "cryst": 4082,
      "needle</w>": 4083,
      "silver</w>": 4084,
      "kay": 4085,
      "por": 4086,
      "##ending</w>": 4087,
      "class</w>": 4088,
      "stretched</w>": 4089,
      "study</w>": 4090,
      "record</w>": 4091,
      "##usi": 4092,
      "motor": 4093,
      "treasures</w>": 4094,
      "enthusi": 4095
    },
    "merges": [
      [
        "t",
        "##h"
      ],
      [
        "##n",
        "##d</w>"
      ],
      [
        "##e",
        "##d</w>"
      ],
      [
        "a",
        "##nd</w>"
      ],
      [
        "th",
        "##e</w>"
      ],
      [
        "w",
        "##a"
      ],
      [
        "t",
        "##o</w>"
      ],
      [
        "##e",
        "##r</w>"
      ],
      [
        "##h",
        "##e</w>"
      ],
      [
        "##i",
        "##n"
      ],
      [
        "wa",
        "##s</w>"
      ],
      [
        "##e",
        "##r"
      ],
      [
        "##o",
        "##u"
      ],
      [
        "##a",
        "##r"
      ],
      [
        "s",
        "##a"
      ],
      [
        "##i",
        "##l"
      ],
      [
        "##e",
        "##y</w>"
      ],
      [
        "##in",
        "##g</w>"
      ],
      [
        "##i",
        "##t"
      ],
      [
        "h",
        "##a"
      ],
      [
        "##a",
        "##y</w>"
      ],
      [
        "T",
        "##h"
      ],
      [
        "##o",
        "##o"
      ],
      [
        "i",
        "##t</w>"
      ],
      [
        "##e",
        "##n"
      ],
      [
        "##a",
        "##t</w>"
      ],
      [
        "##e",
        "##n</w>"
      ],
      [
        "h",
        "##i"
      ],
      [
        "##e",
        "##l"
      ],
      [
        "S",
        "##he</w>"
      ],
      [
        "##m",
        "##e</w>"
      ],
      [
        "h",
        "##er</w>"
      ],
      [
        "##o",
        "##r"
      ],
      [
        "##e",
        "##a"
      ],
      [
        "H",
        "##e</w>"
      ],
      [
        "##o",
        "##m</w>"
      ],
      [
        "##i",
        "##d</w>"
      ],
      [
        "Th",
        "##ey</w>"
      ],
      [
        "##u",
        "##t</w>"
      ],
      [
        "##er",
        "##e</w>"
      ],
      [
        "##e",
        "##s</w>"
      ],
      [
        "T",
        "##he</w>"
      ],
      [
        "##il",
        "##y</w>"
      ],
      [
        "##l",
        "##e</w>"
      ],
      [
        "h",
        "##e</w>"
      ],
      [
        "##r",
        "##i"
      ],
      [
        "sa",
        "##id</w>"
      ],
      [
        "s",
        "##t"
      ],
      [
        "##k",
        "##ed</w>"
      ],
      [
        "t",
        "##o"
      ],
      [
        "##o",
        "##u</w>"
      ],
      [
        "##p",
        "##p"
      ],
      [
        "L",
        "##ily</w>"
      ],
      [
        "##a",
        "##n"
      ],
      [
        "w",
        "##it"
      ],
      [
        "##i",
        "##r"
      ],
      [
        "i",
        "##n</w>"
      ],
      [
        "s",
        "##he</w>"
      ],
      [
        "##c",
        "##e</w>"
      ],
      [
        "wit",
        "##h</w>"
      ],
      [
        "##t",
        "##h"
      ],
      [
        "O",
        "##n"
      ],
      [
        "p",
        "##l"
      ],
      [
        "##v",
        "##e</w>"
      ],
      [
        "##o",
        "##t</w>"
      ],
      [
        "##a",
        "##n</w>"
      ],
      [
        "##l",
        "##d</w>"
      ],
      [
        "hi",
        "##s</w>"
      ],
      [
        "d",
        "##ay</w>"
      ],
      [
        "##o",
        "##n"
      ],
      [
        "th",
        "##at</w>"
      ],
      [
        "w",
        "##h"
      ],
      [
        "##k",
        "##e</w>"
      ],
      [
        "##i",
        "##d"
      ],
      [
        "o",
        "##f</w>"
      ],
      [
        "##t",
        "##ed</w>"
      ],
      [
        "##l",
        "##y</w>"
      ],
      [
        "l",
        "##i"
      ],
      [
        "th",
        "##e"
      ],
      [
        "##o",
        "##n</w>"
      ],
      [
        "##o",
        "##m"
      ],
      [
        "ha",
        "##d</w>"
      ],
      [
        "th",
        "##ey</w>"
      ],
      [
        "##c",
        "##k</w>"
      ],
      [
        "##er",
        "##y</w>"
      ],
      [
        "##r",
        "##e"
      ],
      [
        "s",
        "##o</w>"
      ],
      [
        "y",
        "##ou</w>"
      ],
      [
        "##a",
        "##l"
      ],
      [
        "a",
        "##r"
      ],
      [
        "o",
        "##n</w>"
      ],
      [
        "f",
        "##o"
      ],
      [
        "##s",
        "##e</w>"
      ],
      [
        "##m",
        "##y</w>"
      ],
      [
        "##g",
        "##h"
      ],
      [
        "##e",
        "##t</w>"
      ],
      [
        "s",
        "##h"
      ],
      [
        "##o",
        "##w</w>"
      ],
      [
        "##t",
        "##le</w>"
      ],
      [
        "ha",
        "##pp"
      ],
      [
        "##e",
        "##c"
      ],
      [
        "m",
        "##a"
      ],
      [
        "wa",
        "##n"
      ],
      [
        "t",
        "##i"
      ],
      [
        "fo",
        "##r</w>"
      ],
      [
        "b",
        "##i"
      ],
      [
        "##s",
        "##t</w>"
      ],
      [
        "##u",
        "##r"
      ],
      [
        "I",
        "##t</w>"
      ],
      [
        "v",
        "##ery</w>"
      ],
      [
        "a",
        "##l"
      ],
      [
        "##o",
        "##w"
      ],
      [
        "##a",
        "##y"
      ],
      [
        "##it",
        "##tle</w>"
      ],
      [
        "##d",
        "##s</w>"
      ],
      [
        "l",
        "##ittle</w>"
      ],
      [
        "ti",
        "##me</w>"
      ],
      [
        "##c",
        "##h</w>"
      ],
      [
        "th",
        "##ere</w>"
      ],
      [
        "##ou",
        "##ld</w>"
      ],
      [
        "##i",
        "##s"
      ],
      [
        "##ou",
        "##nd</w>"
      ],
      [
        "##i",
        "##m"
      ],
      [
        "happ",
        "##y</w>"
      ],
      [
        "##o",
        "##me</w>"
      ],
      [
        "m",
        "##om</w>"
      ],
      [
        "##t",
        "##er</w>"
      ],
      [
        "l",
        "##o"
      ],
      [
        "s",
        "##m"
      ],
      [
        "##en",
        "##t</w>"
      ],
      [
        "f",
        "##ri"
      ],
      [
        "n",
        "##e"
      ],
      [
        "b",
        "##o"
      ],
      [
        "i",
        "##s</w>"
      ],
      [
        "##th",
        "##er</w>"
      ],
      [
        "bi",
        "##g</w>"
      ],
      [
        "b",
        "##a"
      ],
      [
        "sa",
        "##w</w>"
      ],
      [
        "n",
        "##ot</w>"
      ],
      [
        "##r",
        "##a"
      ],
      [
        ".",
        "##\"</w>"
      ],
      [
        "c",
        "##a"
      ],
      [
        "On",
        "##e</w>"
      ],
      [
        "##i",
        "##r</w>"
      ],
      [
        "##a",
        "##m"
      ],
      [
        "b",
        "##e"
      ],
      [
        "##v",
        "##ed</w>"
      ],
      [
        "b",
        "##ut</w>"
      ],
      [
        "pl",
        "##ay</w>"
      ],
      [
        "l",
        "##oo"
      ],
      [
        "On",
        "##ce</w>"
      ],
      [
        "w",
        "##ere</w>"
      ],
      [
        "##r",
        "##y</w>"
      ],
      [
        "##gh",
        "##t</w>"
      ],
      [
        "!",
        "##\"</w>"
      ],
      [
        "##i",
        "##c"
      ],
      [
        "u",
        "##p"
      ],
      [
        "##t",
        "##s</w>"
      ],
      [
        "s",
        "##e"
      ],
      [
        "##u",
        "##n</w>"
      ],
      [
        "up",
        "##on</w>"
      ],
      [
        "wan",
        "##ted</w>"
      ],
      [
        "g",
        "##ir"
      ],
      [
        "hi",
        "##m</w>"
      ],
      [
        "gir",
        "##l</w>"
      ],
      [
        "##id",
        "##e</w>"
      ],
      [
        "ar",
        "##e</w>"
      ],
      [
        "the",
        "##m</w>"
      ],
      [
        "##i",
        "##n</w>"
      ],
      [
        "c",
        "##l"
      ],
      [
        "##or",
        "##e</w>"
      ],
      [
        "s",
        "##p"
      ],
      [
        "the",
        "##ir</w>"
      ],
      [
        "##f",
        "##u"
      ],
      [
        "a",
        "##n"
      ],
      [
        "##y",
        "##s</w>"
      ],
      [
        "##v",
        "##er</w>"
      ],
      [
        "h",
        "##el"
      ],
      [
        "##e",
        "##ar"
      ],
      [
        "sm",
        "##il"
      ],
      [
        "##o",
        "##l"
      ],
      [
        "u",
        "##p</w>"
      ],
      [
        "T",
        "##om</w>"
      ],
      [
        "##u",
        "##t"
      ],
      [
        "fri",
        "##en"
      ],
      [
        "b",
        "##e</w>"
      ],
      [
        "ha",
        "##ve</w>"
      ],
      [
        "B",
        "##en</w>"
      ],
      [
        "a",
        "##s"
      ],
      [
        "##e",
        "##e"
      ],
      [
        "w",
        "##ent</w>"
      ],
      [
        "e",
        "##x"
      ],
      [
        "B",
        "##ut</w>"
      ],
      [
        "##im",
        "##my</w>"
      ],
      [
        "##d",
        "##d"
      ],
      [
        "a",
        "##t</w>"
      ],
      [
        "##fu",
        "##l</w>"
      ],
      [
        "g",
        "##o</w>"
      ],
      [
        "i",
        "##n"
      ],
      [
        "##s",
        "##t"
      ],
      [
        "k",
        "##n"
      ],
      [
        "frien",
        "##ds</w>"
      ],
      [
        "##g",
        "##s</w>"
      ],
      [
        "f",
        "##el"
      ],
      [
        "T",
        "##immy</w>"
      ],
      [
        "##u",
        "##n"
      ],
      [
        "pl",
        "##ay"
      ],
      [
        "al",
        "##l</w>"
      ],
      [
        "c",
        "##an</w>"
      ],
      [
        "##r",
        "##o"
      ],
      [
        "##il",
        "##l</w>"
      ],
      [
        "?",
        "##\"</w>"
      ],
      [
        "##c",
        "##h"
      ],
      [
        "##r",
        "##om</w>"
      ],
      [
        "##i",
        "##nd</w>"
      ],
      [
        "##a",
        "##u"
      ],
      [
        "##am",
        "##ed</w>"
      ],
      [
        "p",
        "##ar"
      ],
      [
        "##om",
        "##e"
      ],
      [
        "t",
        "##a"
      ],
      [
        "##th",
        "##ing</w>"
      ],
      [
        "n",
        "##amed</w>"
      ],
      [
        "f",
        "##l"
      ],
      [
        "ba",
        "##ck</w>"
      ],
      [
        "lo",
        "##ved</w>"
      ],
      [
        "Y",
        "##ou</w>"
      ],
      [
        "W",
        "##h"
      ],
      [
        "to",
        "##o</w>"
      ],
      [
        "##s",
        "##ide</w>"
      ],
      [
        "s",
        "##c"
      ],
      [
        "c",
        "##ar"
      ],
      [
        "c",
        "##h"
      ],
      [
        "##d",
        "##e</w>"
      ],
      [
        "##on",
        "##e</w>"
      ],
      [
        "s",
        "##ome"
      ],
      [
        "##al",
        "##l</w>"
      ],
      [
        "f",
        "##a"
      ],
      [
        "fel",
        "##t</w>"
      ],
      [
        "n",
        "##o"
      ],
      [
        "##oo",
        "##k</w>"
      ],
      [
        "smil",
        "##ed</w>"
      ],
      [
        "e",
        "##v"
      ],
      [
        "st",
        "##ar"
      ],
      [
        "c",
        "##ould</w>"
      ],
      [
        "d",
        "##o"
      ],
      [
        "as",
        "##ked</w>"
      ],
      [
        "##a",
        "##in</w>"
      ],
      [
        "f",
        "##un</w>"
      ],
      [
        "##g",
        "##e"
      ],
      [
        "loo",
        "##ked</w>"
      ],
      [
        "li",
        "##ke</w>"
      ],
      [
        "##om",
        "##my</w>"
      ],
      [
        "ar",
        "##ound</w>"
      ],
      [
        "##i",
        "##s</w>"
      ],
      [
        "##k",
        "##s</w>"
      ],
      [
        "##a",
        "##l</w>"
      ],
      [
        "r",
        "##e"
      ],
      [
        "b",
        "##ir"
      ],
      [
        "o",
        "##ut</w>"
      ],
      [
        "bo",
        "##y</w>"
      ],
      [
        "##k",
        "##ing</w>"
      ],
      [
        "##e",
        "##w</w>"
      ],
      [
        "m",
        "##u"
      ],
      [
        "##a",
        "##t"
      ],
      [
        "##oo",
        "##d</w>"
      ],
      [
        "r",
        "##ea"
      ],
      [
        "##l",
        "##ed</w>"
      ],
      [
        "##s",
        "##s</w>"
      ],
      [
        "w",
        "##ould</w>"
      ],
      [
        "##a",
        "##d</w>"
      ],
      [
        "th",
        "##in"
      ],
      [
        "##r",
        "##ea"
      ],
      [
        "##ea",
        "##r</w>"
      ],
      [
        "w",
        "##or"
      ],
      [
        "hel",
        "##p</w>"
      ],
      [
        "o",
        "##n"
      ],
      [
        "a",
        "##g"
      ],
      [
        "##w",
        "##ay</w>"
      ],
      [
        "u",
        "##n"
      ],
      [
        "se",
        "##e</w>"
      ],
      [
        "d",
        "##id</w>"
      ],
      [
        "##i",
        "##m</w>"
      ],
      [
        "wh",
        "##at</w>"
      ],
      [
        "s",
        "##ome</w>"
      ],
      [
        "##ge",
        "##ther</w>"
      ],
      [
        "ma",
        "##ke</w>"
      ],
      [
        "##u",
        "##m"
      ],
      [
        "a",
        "##way</w>"
      ],
      [
        "star",
        "##ted</w>"
      ],
      [
        ",",
        "##\"</w>"
      ],
      [
        "ma",
        "##de</w>"
      ],
      [
        "r",
        "##an</w>"
      ],
      [
        "to",
        "##gether</w>"
      ],
      [
        "sa",
        "##ys</w>"
      ],
      [
        "some",
        "##thing</w>"
      ],
      [
        "par",
        "##k</w>"
      ],
      [
        "##ow",
        "##n</w>"
      ],
      [
        "wa",
        "##l"
      ],
      [
        "##i",
        "##ce</w>"
      ],
      [
        "wan",
        "##t</w>"
      ],
      [
        "##r",
        "##ou"
      ],
      [
        "##re",
        "##e</w>"
      ],
      [
        "##ur",
        "##e</w>"
      ],
      [
        "##it",
        "##ed</w>"
      ],
      [
        "sa",
        "##d</w>"
      ],
      [
        "##on",
        "##g</w>"
      ],
      [
        "sc",
        "##ar"
      ],
      [
        "h",
        "##u"
      ],
      [
        "##e",
        "##nd</w>"
      ],
      [
        "ex",
        "##c"
      ],
      [
        "f",
        "##rom</w>"
      ],
      [
        "##g",
        "##g"
      ],
      [
        "ne",
        "##w</w>"
      ],
      [
        "d",
        "##o</w>"
      ],
      [
        "h",
        "##ome</w>"
      ],
      [
        "T",
        "##im</w>"
      ],
      [
        "ag",
        "##ain</w>"
      ],
      [
        "##ri",
        "##ed</w>"
      ],
      [
        "f",
        "##ound</w>"
      ],
      [
        "th",
        "##en</w>"
      ],
      [
        "p",
        "##ut</w>"
      ],
      [
        "d",
        "##ec"
      ],
      [
        "##p",
        "##l"
      ],
      [
        "##s",
        "##ed</w>"
      ],
      [
        "bir",
        "##d</w>"
      ],
      [
        "##pp",
        "##ed</w>"
      ],
      [
        "b",
        "##u"
      ],
      [
        "##er",
        "##s</w>"
      ],
      [
        "wh",
        "##en</w>"
      ],
      [
        "##i",
        "##t</w>"
      ],
      [
        "##g",
        "##e</w>"
      ],
      [
        "play",
        "##ing</w>"
      ],
      [
        "##ou",
        "##r</w>"
      ],
      [
        "##a",
        "##m</w>"
      ],
      [
        "a",
        "##b"
      ],
      [
        "##t",
        "##y</w>"
      ],
      [
        "wh",
        "##o</w>"
      ],
      [
        "##g",
        "##h</w>"
      ],
      [
        "b",
        "##l"
      ],
      [
        "##o",
        "##p"
      ],
      [
        "g",
        "##a"
      ],
      [
        "s",
        "##w"
      ],
      [
        "thin",
        "##gs</w>"
      ],
      [
        "c",
        "##ou"
      ],
      [
        "o",
        "##ther</w>"
      ],
      [
        "##t",
        "##h</w>"
      ],
      [
        "##t",
        "##i"
      ],
      [
        "g",
        "##ot</w>"
      ],
      [
        "li",
        "##ked</w>"
      ],
      [
        "M",
        "##om</w>"
      ],
      [
        "##ou",
        "##t</w>"
      ],
      [
        "dec",
        "##id"
      ],
      [
        "A",
        "##n"
      ],
      [
        "##ay",
        "##s</w>"
      ],
      [
        "S",
        "##u"
      ],
      [
        "decid",
        "##ed</w>"
      ],
      [
        "ca",
        "##me</w>"
      ],
      [
        "w",
        "##e</w>"
      ],
      [
        "fri",
        "##end</w>"
      ],
      [
        "##i",
        "##ght</w>"
      ],
      [
        "exc",
        "##ited</w>"
      ],
      [
        "##n",
        "##y</w>"
      ],
      [
        "p",
        "##a"
      ],
      [
        "b",
        "##ec"
      ],
      [
        "M",
        "##a"
      ],
      [
        "a",
        "##s</w>"
      ],
      [
        "##n",
        "##ed</w>"
      ],
      [
        "##ou",
        "##s</w>"
      ],
      [
        "g",
        "##r"
      ],
      [
        "##er",
        "##y"
      ],
      [
        "d",
        "##own</w>"
      ],
      [
        "##a",
        "##ck</w>"
      ],
      [
        "m",
        "##an</w>"
      ],
      [
        "##b",
        "##b"
      ],
      [
        "scar",
        "##ed</w>"
      ],
      [
        "f",
        "##or"
      ],
      [
        "on",
        "##e</w>"
      ],
      [
        "##ar",
        "##d</w>"
      ],
      [
        "th",
        "##ou"
      ],
      [
        "An",
        "##n"
      ],
      [
        "s",
        "##l"
      ],
      [
        "##l",
        "##d"
      ],
      [
        "##ou",
        "##se</w>"
      ],
      [
        "a",
        "##n</w>"
      ],
      [
        "##d",
        "##y</w>"
      ],
      [
        "Ma",
        "##x</w>"
      ],
      [
        "S",
        "##am</w>"
      ],
      [
        "##w",
        "##ays</w>"
      ],
      [
        "d",
        "##id"
      ],
      [
        "f",
        "##ind</w>"
      ],
      [
        "W",
        "##e</w>"
      ],
      [
        "Ann",
        "##a</w>"
      ],
      [
        "do",
        "##g</w>"
      ],
      [
        "al",
        "##ways</w>"
      ],
      [
        "t",
        "##ook</w>"
      ],
      [
        "cl",
        "##o"
      ],
      [
        "##r",
        "##u"
      ],
      [
        "did",
        "##n</w>"
      ],
      [
        "m",
        "##ommy</w>"
      ],
      [
        "g",
        "##et</w>"
      ],
      [
        "p",
        "##u"
      ],
      [
        "o",
        "##ut"
      ],
      [
        "ab",
        "##out</w>"
      ],
      [
        "##oo",
        "##m</w>"
      ],
      [
        "to",
        "##ys</w>"
      ],
      [
        "y",
        "##our</w>"
      ],
      [
        "t",
        "##ree</w>"
      ],
      [
        "S",
        "##ar"
      ],
      [
        "out",
        "##side</w>"
      ],
      [
        "p",
        "##ic"
      ],
      [
        "w",
        "##ill</w>"
      ],
      [
        "l",
        "##ear"
      ],
      [
        "g",
        "##ood</w>"
      ],
      [
        "m",
        "##o"
      ],
      [
        "##ec",
        "##i"
      ],
      [
        "##oo",
        "##n</w>"
      ],
      [
        "m",
        "##e</w>"
      ],
      [
        "##en",
        "##ed</w>"
      ],
      [
        "e",
        "##a"
      ],
      [
        "##al",
        "##ly</w>"
      ],
      [
        "l",
        "##a"
      ],
      [
        "##ch",
        "##ed</w>"
      ],
      [
        "m",
        "##ore</w>"
      ],
      [
        "p",
        "##re"
      ],
      [
        "E",
        "##v"
      ],
      [
        "in",
        "##t"
      ],
      [
        "##o",
        "##c"
      ],
      [
        "h",
        "##ear"
      ],
      [
        "##e",
        "##m"
      ],
      [
        "m",
        "##y</w>"
      ],
      [
        "##f",
        "##f"
      ],
      [
        "r",
        "##a"
      ],
      [
        "thou",
        "##ght</w>"
      ],
      [
        "##it",
        "##e</w>"
      ],
      [
        "##au",
        "##gh"
      ],
      [
        "##er",
        "##ed</w>"
      ],
      [
        "##u",
        "##c"
      ],
      [
        "j",
        "##u"
      ],
      [
        "Wh",
        "##en</w>"
      ],
      [
        "sp",
        "##eci"
      ],
      [
        "speci",
        "##al</w>"
      ],
      [
        "o",
        "##ld</w>"
      ],
      [
        "ta",
        "##ke</w>"
      ],
      [
        "g",
        "##ra"
      ],
      [
        "s",
        "##or"
      ],
      [
        "H",
        "##er</w>"
      ],
      [
        "e",
        "##n"
      ],
      [
        "##ee",
        "##p</w>"
      ],
      [
        "kn",
        "##ew</w>"
      ],
      [
        "d",
        "##ad</w>"
      ],
      [
        "##e",
        "##ful</w>"
      ],
      [
        "##ld",
        "##n</w>"
      ],
      [
        "to",
        "##y</w>"
      ],
      [
        "##b",
        "##le</w>"
      ],
      [
        "h",
        "##ow</w>"
      ],
      [
        "b",
        "##ea"
      ],
      [
        "J",
        "##o"
      ],
      [
        "g",
        "##i"
      ],
      [
        "##k",
        "##y</w>"
      ],
      [
        "mu",
        "##ch</w>"
      ],
      [
        "##gg",
        "##ed</w>"
      ],
      [
        "ca",
        "##r</w>"
      ],
      [
        "##en",
        "##ly</w>"
      ],
      [
        "##dd",
        "##enly</w>"
      ],
      [
        "##t",
        "##ter</w>"
      ],
      [
        "##f",
        "##ter</w>"
      ],
      [
        "th",
        "##an"
      ],
      [
        "kn",
        "##ow</w>"
      ],
      [
        "##t",
        "##ing</w>"
      ],
      [
        "sor",
        "##ry</w>"
      ],
      [
        "##e",
        "##p"
      ],
      [
        "S",
        "##o</w>"
      ],
      [
        "h",
        "##ouse</w>"
      ],
      [
        "t",
        "##w"
      ],
      [
        "##el",
        "##l"
      ],
      [
        "sh",
        "##ar"
      ],
      [
        "h",
        "##o"
      ],
      [
        "c",
        "##o"
      ],
      [
        "##s",
        "##h"
      ],
      [
        "to",
        "##ld</w>"
      ],
      [
        "##r",
        "##an"
      ],
      [
        "J",
        "##ack</w>"
      ],
      [
        "o",
        "##p"
      ],
      [
        "##en",
        "##t"
      ],
      [
        "in",
        "##side</w>"
      ],
      [
        "ga",
        "##ve</w>"
      ],
      [
        "l",
        "##e"
      ],
      [
        "##an",
        "##t</w>"
      ],
      [
        "t",
        "##ried</w>"
      ],
      [
        "int",
        "##o</w>"
      ],
      [
        "##is",
        "##h</w>"
      ],
      [
        "##s",
        "##s"
      ],
      [
        "p",
        "##rou"
      ],
      [
        "b",
        "##all</w>"
      ],
      [
        "##i",
        "##a</w>"
      ],
      [
        "p",
        "##i"
      ],
      [
        "q",
        "##u"
      ],
      [
        "##ea",
        "##n</w>"
      ],
      [
        "ne",
        "##ver</w>"
      ],
      [
        "m",
        "##an"
      ],
      [
        "##p",
        "##ed</w>"
      ],
      [
        "##au",
        "##se</w>"
      ],
      [
        "i",
        "##f</w>"
      ],
      [
        "wa",
        "##ter</w>"
      ],
      [
        "loo",
        "##k</w>"
      ],
      [
        "play",
        "##ed</w>"
      ],
      [
        "##e",
        "##st</w>"
      ],
      [
        "hear",
        "##d</w>"
      ],
      [
        "wa",
        "##t"
      ],
      [
        "o",
        "##ver</w>"
      ],
      [
        "c",
        "##om"
      ],
      [
        "prou",
        "##d</w>"
      ],
      [
        "F",
        "##rom</w>"
      ],
      [
        "cou",
        "##ldn</w>"
      ],
      [
        "ex",
        "##pl"
      ],
      [
        "pre",
        "##t"
      ],
      [
        "ea",
        "##ch</w>"
      ],
      [
        "th",
        "##is</w>"
      ],
      [
        "f",
        "##e"
      ],
      [
        "r",
        "##oom</w>"
      ],
      [
        "bec",
        "##ause</w>"
      ],
      [
        "Su",
        "##ddenly</w>"
      ],
      [
        "hu",
        "##gged</w>"
      ],
      [
        "Th",
        "##en</w>"
      ],
      [
        "l",
        "##augh"
      ],
      [
        "##oo",
        "##r</w>"
      ],
      [
        "p",
        "##o"
      ],
      [
        "ju",
        "##st</w>"
      ],
      [
        "##i",
        "##se</w>"
      ],
      [
        "H",
        "##is</w>"
      ],
      [
        "##il",
        "##e</w>"
      ],
      [
        "g",
        "##re"
      ],
      [
        "M",
        "##ia</w>"
      ],
      [
        "ev",
        "##ery"
      ],
      [
        "an",
        "##y"
      ],
      [
        "Sar",
        "##a</w>"
      ],
      [
        "##y",
        "##ing</w>"
      ],
      [
        "##f",
        "##e</w>"
      ],
      [
        "n",
        "##o</w>"
      ],
      [
        "man",
        "##y</w>"
      ],
      [
        "f",
        "##in"
      ],
      [
        "##e",
        "##ss</w>"
      ],
      [
        "##ow",
        "##ed</w>"
      ],
      [
        "##l",
        "##i"
      ],
      [
        "st",
        "##o"
      ],
      [
        "n",
        "##ice</w>"
      ],
      [
        "bo",
        "##x</w>"
      ],
      [
        "##v",
        "##ing</w>"
      ],
      [
        "##is",
        "##h"
      ],
      [
        "##el",
        "##l</w>"
      ],
      [
        "g",
        "##o"
      ],
      [
        "s",
        "##n"
      ],
      [
        "##e",
        "##t"
      ],
      [
        "##d",
        "##ed</w>"
      ],
      [
        "lear",
        "##ned</w>"
      ],
      [
        "A",
        "##nd</w>"
      ],
      [
        "L",
        "##et</w>"
      ],
      [
        "b",
        "##ear</w>"
      ],
      [
        "c",
        "##ol"
      ],
      [
        "##k",
        "##es</w>"
      ],
      [
        "an",
        "##im"
      ],
      [
        "un",
        "##ti"
      ],
      [
        "##g",
        "##ry</w>"
      ],
      [
        "##f",
        "##f</w>"
      ],
      [
        "j",
        "##o"
      ],
      [
        "##n",
        "##ing</w>"
      ],
      [
        "b",
        "##ro"
      ],
      [
        "be",
        "##tter</w>"
      ],
      [
        "##el",
        "##f</w>"
      ],
      [
        "c",
        "##al"
      ],
      [
        "##ar",
        "##d"
      ],
      [
        "unti",
        "##l</w>"
      ],
      [
        "a",
        "##d"
      ],
      [
        "sm",
        "##all</w>"
      ],
      [
        "##l",
        "##a"
      ],
      [
        "##f",
        "##t</w>"
      ],
      [
        "r",
        "##o"
      ],
      [
        "##un",
        "##ny</w>"
      ],
      [
        "p",
        "##e"
      ],
      [
        "i",
        "##m"
      ],
      [
        "h",
        "##ea"
      ],
      [
        "##k",
        "##et</w>"
      ],
      [
        "f",
        "##i"
      ],
      [
        "Th",
        "##at</w>"
      ],
      [
        "##u",
        "##e</w>"
      ],
      [
        "##dd",
        "##y</w>"
      ],
      [
        "d",
        "##i"
      ],
      [
        "##a",
        "##me</w>"
      ],
      [
        "fl",
        "##ow"
      ],
      [
        "##in",
        "##e</w>"
      ],
      [
        "be",
        "##st</w>"
      ],
      [
        "##l",
        "##l</w>"
      ],
      [
        "l",
        "##ea"
      ],
      [
        "f",
        "##ir"
      ],
      [
        "##ee",
        "##l</w>"
      ],
      [
        "##al",
        "##s</w>"
      ],
      [
        "p",
        "##r"
      ],
      [
        "e",
        "##at</w>"
      ],
      [
        "h",
        "##ur"
      ],
      [
        "car",
        "##eful</w>"
      ],
      [
        "s",
        "##ky</w>"
      ],
      [
        "c",
        "##u"
      ],
      [
        "than",
        "##ked</w>"
      ],
      [
        "##v",
        "##es</w>"
      ],
      [
        "##z",
        "##ed</w>"
      ],
      [
        "bea",
        "##ut"
      ],
      [
        "b",
        "##ra"
      ],
      [
        "g",
        "##ard"
      ],
      [
        "##ur",
        "##p"
      ],
      [
        "gard",
        "##en</w>"
      ],
      [
        "s",
        "##u"
      ],
      [
        "fe",
        "##el"
      ],
      [
        "##s",
        "##elf</w>"
      ],
      [
        "##s",
        "##h</w>"
      ],
      [
        "##in",
        "##y</w>"
      ],
      [
        "lo",
        "##ts</w>"
      ],
      [
        "l",
        "##ou"
      ],
      [
        "ev",
        "##en</w>"
      ],
      [
        "laugh",
        "##ed</w>"
      ],
      [
        "f",
        "##am"
      ],
      [
        "o",
        "##ff</w>"
      ],
      [
        "j",
        "##um"
      ],
      [
        "b",
        "##y</w>"
      ],
      [
        "l",
        "##ong</w>"
      ],
      [
        "##d",
        "##ing</w>"
      ],
      [
        "c",
        "##oo"
      ],
      [
        "e",
        "##nd</w>"
      ],
      [
        "d",
        "##on</w>"
      ],
      [
        "beaut",
        "##i"
      ],
      [
        "##l",
        "##ly</w>"
      ],
      [
        "Y",
        "##es</w>"
      ],
      [
        "lo",
        "##ve</w>"
      ],
      [
        "st",
        "##ill</w>"
      ],
      [
        "beauti",
        "##ful</w>"
      ],
      [
        "li",
        "##st"
      ],
      [
        "##d",
        "##er"
      ],
      [
        "sa",
        "##y</w>"
      ],
      [
        "c",
        "##at</w>"
      ],
      [
        "c",
        "##ome</w>"
      ],
      [
        "Wh",
        "##at</w>"
      ],
      [
        "anim",
        "##als</w>"
      ],
      [
        "C",
        "##an</w>"
      ],
      [
        "M",
        "##ommy</w>"
      ],
      [
        "##l",
        "##es</w>"
      ],
      [
        "##o",
        "##r</w>"
      ],
      [
        "t",
        "##ru"
      ],
      [
        "##at",
        "##e</w>"
      ],
      [
        "##r",
        "##ong</w>"
      ],
      [
        "##ep",
        "##t</w>"
      ],
      [
        "re",
        "##m"
      ],
      [
        "k",
        "##ind</w>"
      ],
      [
        "##an",
        "##k</w>"
      ],
      [
        "L",
        "##uc"
      ],
      [
        "Jo",
        "##h"
      ],
      [
        "sa",
        "##fe</w>"
      ],
      [
        "g",
        "##l"
      ],
      [
        "ha",
        "##n"
      ],
      [
        "##i",
        "##e</w>"
      ],
      [
        "d",
        "##ol"
      ],
      [
        "A",
        "##s</w>"
      ],
      [
        "f",
        "##eel</w>"
      ],
      [
        "li",
        "##ved</w>"
      ],
      [
        "##i",
        "##l</w>"
      ],
      [
        "bo",
        "##th</w>"
      ],
      [
        "wa",
        "##y</w>"
      ],
      [
        "##e",
        "##a</w>"
      ],
      [
        "st",
        "##or"
      ],
      [
        "im",
        "##p"
      ],
      [
        "##op",
        "##le</w>"
      ],
      [
        "##d",
        "##er</w>"
      ],
      [
        "##m",
        "##a</w>"
      ],
      [
        "i",
        "##ts</w>"
      ],
      [
        "fam",
        "##ily</w>"
      ],
      [
        "##k",
        "##ay</w>"
      ],
      [
        "to",
        "##w"
      ],
      [
        "s",
        "##o"
      ],
      [
        "d",
        "##an"
      ],
      [
        "##ou",
        "##n"
      ],
      [
        "t",
        "##ur"
      ],
      [
        "r",
        "##ed</w>"
      ],
      [
        "A",
        "##fter</w>"
      ],
      [
        "##ish",
        "##ed</w>"
      ],
      [
        "##l",
        "##s</w>"
      ],
      [
        "ev",
        "##ery</w>"
      ],
      [
        "tw",
        "##o</w>"
      ],
      [
        "h",
        "##ard</w>"
      ],
      [
        "##ou",
        "##r"
      ],
      [
        "B",
        "##o"
      ],
      [
        "##ic",
        "##k"
      ],
      [
        "bra",
        "##ve</w>"
      ],
      [
        "pe",
        "##ople</w>"
      ],
      [
        "##i",
        "##es</w>"
      ],
      [
        "##b",
        "##e</w>"
      ],
      [
        "##urp",
        "##ri"
      ],
      [
        "Luc",
        "##y</w>"
      ],
      [
        "cal",
        "##led</w>"
      ],
      [
        "ad",
        "##v"
      ],
      [
        "fl",
        "##ew</w>"
      ],
      [
        "pl",
        "##a"
      ],
      [
        "o",
        "##w"
      ],
      [
        "hur",
        "##t</w>"
      ],
      [
        "wal",
        "##ked</w>"
      ],
      [
        "s",
        "##urpri"
      ],
      [
        "##er",
        "##f"
      ],
      [
        "lou",
        "##d</w>"
      ],
      [
        "s",
        "##un</w>"
      ],
      [
        "##an",
        "##e</w>"
      ],
      [
        "an",
        "##gry</w>"
      ],
      [
        "no",
        "##t"
      ],
      [
        "##or",
        "##t"
      ],
      [
        "s",
        "##oon</w>"
      ],
      [
        "t",
        "##ry</w>"
      ],
      [
        "k",
        "##ept</w>"
      ],
      [
        "l",
        "##et</w>"
      ],
      [
        "shar",
        "##e</w>"
      ],
      [
        "##f",
        "##ore</w>"
      ],
      [
        "pret",
        "##ty</w>"
      ],
      [
        "ba",
        "##d</w>"
      ],
      [
        "c",
        "##on"
      ],
      [
        "o",
        "##r</w>"
      ],
      [
        "d",
        "##ra"
      ],
      [
        "##x",
        "##t</w>"
      ],
      [
        "Th",
        "##ank</w>"
      ],
      [
        "go",
        "##ing</w>"
      ],
      [
        "a",
        "##c"
      ],
      [
        "sh",
        "##iny</w>"
      ],
      [
        "d",
        "##is"
      ],
      [
        "##dd",
        "##ed</w>"
      ],
      [
        "op",
        "##ened</w>"
      ],
      [
        "gr",
        "##ound</w>"
      ],
      [
        "adv",
        "##ent"
      ],
      [
        "c",
        "##rea"
      ],
      [
        "N",
        "##o</w>"
      ],
      [
        "Joh",
        "##n</w>"
      ],
      [
        "##il",
        "##ly</w>"
      ],
      [
        "##el",
        "##y</w>"
      ],
      [
        "##i",
        "##ck</w>"
      ],
      [
        "i",
        "##d"
      ],
      [
        "##g",
        "##er</w>"
      ],
      [
        "##i",
        "##c</w>"
      ],
      [
        "be",
        "##fore</w>"
      ],
      [
        "b",
        "##ut"
      ],
      [
        "no",
        "##ise</w>"
      ],
      [
        "b",
        "##ri"
      ],
      [
        "##y",
        "##e</w>"
      ],
      [
        "sh",
        "##ould</w>"
      ],
      [
        "##n",
        "##er</w>"
      ],
      [
        "r",
        "##un</w>"
      ],
      [
        "for",
        "##g"
      ],
      [
        "fa",
        "##st</w>"
      ],
      [
        "##a",
        "##r</w>"
      ],
      [
        "expl",
        "##ore</w>"
      ],
      [
        "##q",
        "##u"
      ],
      [
        "##s",
        "##o</w>"
      ],
      [
        "hu",
        "##g</w>"
      ],
      [
        "m",
        "##on"
      ],
      [
        "al",
        "##so</w>"
      ],
      [
        "pic",
        "##ked</w>"
      ],
      [
        "l",
        "##ot</w>"
      ],
      [
        "feel",
        "##ing</w>"
      ],
      [
        "d",
        "##oor</w>"
      ],
      [
        "wh",
        "##ile</w>"
      ],
      [
        "##an",
        "##d"
      ],
      [
        "Ev",
        "##ery"
      ],
      [
        "n",
        "##ow</w>"
      ],
      [
        "id",
        "##ea</w>"
      ],
      [
        "Ev",
        "##ery</w>"
      ],
      [
        "##l",
        "##l"
      ],
      [
        "##d",
        "##ly</w>"
      ],
      [
        "##t",
        "##e</w>"
      ],
      [
        "wa",
        "##r"
      ],
      [
        "cl",
        "##im"
      ],
      [
        "ne",
        "##xt</w>"
      ],
      [
        "w",
        "##in"
      ],
      [
        "##em",
        "##b"
      ],
      [
        "clo",
        "##s"
      ],
      [
        "k",
        "##eep</w>"
      ],
      [
        "t",
        "##ra"
      ],
      [
        "ha",
        "##s</w>"
      ],
      [
        "wal",
        "##king</w>"
      ],
      [
        "D",
        "##a"
      ],
      [
        "pic",
        "##t"
      ],
      [
        "a",
        "##m"
      ],
      [
        "##ic",
        "##ed</w>"
      ],
      [
        "no",
        "##dded</w>"
      ],
      [
        "c",
        "##r"
      ],
      [
        "smil",
        "##e</w>"
      ],
      [
        "d",
        "##re"
      ],
      [
        "S",
        "##p"
      ],
      [
        "k",
        "##it"
      ],
      [
        "loo",
        "##king</w>"
      ],
      [
        "sh",
        "##ow</w>"
      ],
      [
        "r",
        "##u"
      ],
      [
        "ne",
        "##ed</w>"
      ],
      [
        "##um",
        "##my</w>"
      ],
      [
        "be",
        "##ing</w>"
      ],
      [
        "##en",
        "##ny</w>"
      ],
      [
        "r",
        "##un"
      ],
      [
        "€",
        "##™</w>"
      ],
      [
        "##i",
        "##on</w>"
      ],
      [
        "rem",
        "##emb"
      ],
      [
        "##d",
        "##b"
      ],
      [
        "##j",
        "##o"
      ],
      [
        "t",
        "##ou"
      ],
      [
        "##u",
        "##r</w>"
      ],
      [
        "gi",
        "##ve</w>"
      ],
      [
        "##b",
        "##y</w>"
      ],
      [
        "but",
        "##t"
      ],
      [
        "t",
        "##al"
      ],
      [
        "Bo",
        "##b</w>"
      ],
      [
        "##in",
        "##ed</w>"
      ],
      [
        "sto",
        "##pped</w>"
      ],
      [
        "##el",
        "##i"
      ],
      [
        "##p",
        "##er</w>"
      ],
      [
        "di",
        "##ff"
      ],
      [
        "f",
        "##ood</w>"
      ],
      [
        "##ur",
        "##es</w>"
      ],
      [
        "##y",
        "##es</w>"
      ],
      [
        "##i",
        "##ous</w>"
      ],
      [
        "b",
        "##rea"
      ],
      [
        "w",
        "##on"
      ],
      [
        "cl",
        "##ean</w>"
      ],
      [
        "not",
        "##iced</w>"
      ],
      [
        "g",
        "##oo"
      ],
      [
        "##i",
        "##ed</w>"
      ],
      [
        "am",
        "##a"
      ],
      [
        "e",
        "##yes</w>"
      ],
      [
        "han",
        "##ds</w>"
      ],
      [
        "en",
        "##jo"
      ],
      [
        "##en",
        "##ts</w>"
      ],
      [
        "sl",
        "##ide</w>"
      ],
      [
        "e",
        "##ver</w>"
      ],
      [
        "sh",
        "##ou"
      ],
      [
        "##oc",
        "##ks</w>"
      ],
      [
        "sh",
        "##owed</w>"
      ],
      [
        "re",
        "##pl"
      ],
      [
        "for",
        "##est</w>"
      ],
      [
        "gre",
        "##at</w>"
      ],
      [
        "flow",
        "##ers</w>"
      ],
      [
        "##d",
        "##ay</w>"
      ],
      [
        "a",
        "##pp"
      ],
      [
        "##e",
        "##ver</w>"
      ],
      [
        "col",
        "##or"
      ],
      [
        "tru",
        "##ck</w>"
      ],
      [
        "every",
        "##one</w>"
      ],
      [
        "imp",
        "##ort"
      ],
      [
        "##c",
        "##t"
      ],
      [
        "##in",
        "##k</w>"
      ],
      [
        "##ea",
        "##se</w>"
      ],
      [
        "f",
        "##ish</w>"
      ],
      [
        "t",
        "##re"
      ],
      [
        "##t",
        "##ch</w>"
      ],
      [
        "e",
        "##l"
      ],
      [
        "Su",
        "##e</w>"
      ],
      [
        "o",
        "##kay</w>"
      ],
      [
        "import",
        "##ant</w>"
      ],
      [
        "##ec",
        "##t</w>"
      ],
      [
        "##n",
        "##s</w>"
      ],
      [
        "ra",
        "##bb"
      ],
      [
        "ha",
        "##nd</w>"
      ],
      [
        "##u",
        "##ck</w>"
      ],
      [
        "##ar",
        "##k</w>"
      ],
      [
        "pla",
        "##ce</w>"
      ],
      [
        "Sp",
        "##ot</w>"
      ],
      [
        "list",
        "##en</w>"
      ],
      [
        "r",
        "##ight</w>"
      ],
      [
        "qu",
        "##ick"
      ],
      [
        "##bb",
        "##ed</w>"
      ],
      [
        "bl",
        "##ue</w>"
      ],
      [
        "D",
        "##o</w>"
      ],
      [
        "quick",
        "##ly</w>"
      ],
      [
        "fo",
        "##ll"
      ],
      [
        "repl",
        "##ied</w>"
      ],
      [
        "b",
        "##ed</w>"
      ],
      [
        "Th",
        "##is</w>"
      ],
      [
        "wat",
        "##ched</w>"
      ],
      [
        "a",
        "##fter</w>"
      ],
      [
        "##a",
        "##ble</w>"
      ],
      [
        "M",
        "##ay"
      ],
      [
        "##on",
        "##s</w>"
      ],
      [
        "wh",
        "##ere</w>"
      ],
      [
        "L",
        "##ook</w>"
      ],
      [
        "bec",
        "##ame</w>"
      ],
      [
        "##db",
        "##ye</w>"
      ],
      [
        "##il",
        "##d</w>"
      ],
      [
        "diff",
        "##er"
      ],
      [
        "m",
        "##or"
      ],
      [
        "May",
        "##be</w>"
      ],
      [
        "##s",
        "##ter</w>"
      ],
      [
        "##o",
        "##ice</w>"
      ],
      [
        "s",
        "##ure</w>"
      ],
      [
        "rabb",
        "##it</w>"
      ],
      [
        "ca",
        "##ke</w>"
      ],
      [
        "cu",
        "##ri"
      ],
      [
        "be",
        "##en</w>"
      ],
      [
        "hi",
        "##gh</w>"
      ],
      [
        "ma",
        "##g"
      ],
      [
        "f",
        "##ly</w>"
      ],
      [
        "##a",
        "##h</w>"
      ],
      [
        "wor",
        "##k</w>"
      ],
      [
        "st",
        "##ay</w>"
      ],
      [
        "t",
        "##r"
      ],
      [
        "wal",
        "##k</w>"
      ],
      [
        "s",
        "##qu"
      ],
      [
        "goo",
        "##dbye</w>"
      ],
      [
        "fa",
        "##ce</w>"
      ],
      [
        "##m",
        "##ore</w>"
      ],
      [
        "any",
        "##more</w>"
      ],
      [
        "clos",
        "##er</w>"
      ],
      [
        "##ear",
        "##s</w>"
      ],
      [
        "J",
        "##ane</w>"
      ],
      [
        "bo",
        "##at</w>"
      ],
      [
        "differ",
        "##ent</w>"
      ],
      [
        "##e",
        "##et</w>"
      ],
      [
        "st",
        "##rong</w>"
      ],
      [
        "st",
        "##ore</w>"
      ],
      [
        "v",
        "##oice</w>"
      ],
      [
        "dol",
        "##l</w>"
      ],
      [
        "##il",
        "##a</w>"
      ],
      [
        "##e",
        "##l</w>"
      ],
      [
        "##al",
        "##l"
      ],
      [
        "curi",
        "##ous</w>"
      ],
      [
        "s",
        "##i"
      ],
      [
        "Sar",
        "##ah</w>"
      ],
      [
        "##t",
        "##t"
      ],
      [
        "L",
        "##ila</w>"
      ],
      [
        "fa",
        "##v"
      ],
      [
        "ne",
        "##e"
      ],
      [
        "##ir",
        "##ed</w>"
      ],
      [
        "##in",
        "##s</w>"
      ],
      [
        "m",
        "##ean</w>"
      ],
      [
        "##p",
        "##ing</w>"
      ],
      [
        "b",
        "##r"
      ],
      [
        "hel",
        "##ped</w>"
      ],
      [
        "hea",
        "##d</w>"
      ],
      [
        "fir",
        "##st</w>"
      ],
      [
        "##h",
        "##ere</w>"
      ],
      [
        "Every",
        "##one</w>"
      ],
      [
        "##c",
        "##k"
      ],
      [
        "##a",
        "##ge</w>"
      ],
      [
        "fel",
        "##l</w>"
      ],
      [
        "sh",
        "##a"
      ],
      [
        "con",
        "##t"
      ],
      [
        "rea",
        "##li"
      ],
      [
        "##sh",
        "##ed</w>"
      ],
      [
        "o",
        "##ur</w>"
      ],
      [
        "u",
        "##se</w>"
      ],
      [
        "happ",
        "##ened</w>"
      ],
      [
        "##i",
        "##ve</w>"
      ],
      [
        "D",
        "##ad</w>"
      ],
      [
        "th",
        "##ree</w>"
      ],
      [
        "war",
        "##m</w>"
      ],
      [
        "##u",
        "##ll</w>"
      ],
      [
        "##ch",
        "##en</w>"
      ],
      [
        "kit",
        "##chen</w>"
      ],
      [
        "n",
        "##ight</w>"
      ],
      [
        "d",
        "##el"
      ],
      [
        "d",
        "##ro"
      ],
      [
        "bir",
        "##ds</w>"
      ],
      [
        "gra",
        "##bbed</w>"
      ],
      [
        "m",
        "##is"
      ],
      [
        "ch",
        "##e"
      ],
      [
        "dre",
        "##ss</w>"
      ],
      [
        "m",
        "##ea"
      ],
      [
        "##ol",
        "##ly</w>"
      ],
      [
        "h",
        "##ere</w>"
      ],
      [
        "on",
        "##ly</w>"
      ],
      [
        "stor",
        "##y</w>"
      ],
      [
        "un",
        "##der"
      ],
      [
        "wa",
        "##it</w>"
      ],
      [
        "se",
        "##es</w>"
      ],
      [
        "do",
        "##es</w>"
      ],
      [
        "reali",
        "##zed</w>"
      ],
      [
        "gl",
        "##ad</w>"
      ],
      [
        "t",
        "##ea"
      ],
      [
        "##ran",
        "##ge</w>"
      ],
      [
        "r",
        "##e</w>"
      ],
      [
        "jum",
        "##ped</w>"
      ],
      [
        "D",
        "##on</w>"
      ],
      [
        "##pp",
        "##y</w>"
      ],
      [
        "be",
        "##h"
      ],
      [
        "h",
        "##er"
      ],
      [
        "advent",
        "##ure</w>"
      ],
      [
        "##l",
        "##ing</w>"
      ],
      [
        "a",
        "##m</w>"
      ],
      [
        "##in",
        "##gs</w>"
      ],
      [
        "u",
        "##s</w>"
      ],
      [
        "c",
        "##ra"
      ],
      [
        "##p",
        "##s</w>"
      ],
      [
        "rea",
        "##ched</w>"
      ],
      [
        "gr",
        "##and"
      ],
      [
        "gra",
        "##ss</w>"
      ],
      [
        "t",
        "##ri"
      ],
      [
        "ha",
        "##ving</w>"
      ],
      [
        "b",
        "##ook</w>"
      ],
      [
        "##z",
        "##y</w>"
      ],
      [
        "be",
        "##g"
      ],
      [
        "##ou",
        "##gh</w>"
      ],
      [
        "ch",
        "##a"
      ],
      [
        "th",
        "##rou"
      ],
      [
        "c",
        "##ry</w>"
      ],
      [
        "wat",
        "##ch</w>"
      ],
      [
        "pr",
        "##in"
      ],
      [
        "##s",
        "##p"
      ],
      [
        "a",
        "##te</w>"
      ],
      [
        "cl",
        "##a"
      ],
      [
        "##d",
        "##ow</w>"
      ],
      [
        "##s",
        "##sed</w>"
      ],
      [
        "sh",
        "##o"
      ],
      [
        "##o",
        "##ther</w>"
      ],
      [
        "rea",
        "##dy</w>"
      ],
      [
        "b",
        "##oo"
      ],
      [
        "bri",
        "##ght</w>"
      ],
      [
        "y",
        "##ummy</w>"
      ],
      [
        "throu",
        "##gh</w>"
      ],
      [
        "##is",
        "##y</w>"
      ],
      [
        "##e",
        "##st"
      ],
      [
        "##d",
        "##r"
      ],
      [
        "##w",
        "##here</w>"
      ],
      [
        "wor",
        "##ld</w>"
      ],
      [
        "f",
        "##il"
      ],
      [
        "h",
        "##op"
      ],
      [
        "op",
        "##en</w>"
      ],
      [
        "##s",
        "##y</w>"
      ],
      [
        "ga",
        "##me</w>"
      ],
      [
        "##th",
        "##ers</w>"
      ],
      [
        "##t",
        "##im"
      ],
      [
        "bi",
        "##t</w>"
      ],
      [
        "rea",
        "##lly</w>"
      ],
      [
        "##tim",
        "##es</w>"
      ],
      [
        "shou",
        "##ted</w>"
      ],
      [
        "sa",
        "##n"
      ],
      [
        "##a",
        "##nd</w>"
      ],
      [
        "beg",
        "##an</w>"
      ],
      [
        "fav",
        "##or"
      ],
      [
        "favor",
        "##ite</w>"
      ],
      [
        "m",
        "##ar"
      ],
      [
        "##m",
        "##self</w>"
      ],
      [
        "##id",
        "##s</w>"
      ],
      [
        "hi",
        "##mself</w>"
      ],
      [
        "under",
        "##st"
      ],
      [
        "h",
        "##un"
      ],
      [
        "ro",
        "##ck</w>"
      ],
      [
        "t",
        "##ired</w>"
      ],
      [
        "##k",
        "##en</w>"
      ],
      [
        "##y",
        "##ed</w>"
      ],
      [
        "##fu",
        "##lly</w>"
      ],
      [
        "u",
        "##sed</w>"
      ],
      [
        "##ow",
        "##s</w>"
      ],
      [
        "butt",
        "##erf"
      ],
      [
        "N",
        "##ow</w>"
      ],
      [
        "pa",
        "##in"
      ],
      [
        "mu",
        "##m</w>"
      ],
      [
        "th",
        "##ing</w>"
      ],
      [
        "y",
        "##ell"
      ],
      [
        "d",
        "##one</w>"
      ],
      [
        "ma",
        "##king</w>"
      ],
      [
        "p",
        "##at"
      ],
      [
        "th",
        "##an</w>"
      ],
      [
        "com",
        "##ing</w>"
      ],
      [
        "k",
        "##ids</w>"
      ],
      [
        "f",
        "##unny</w>"
      ],
      [
        "n",
        "##ame</w>"
      ],
      [
        "f",
        "##ar"
      ],
      [
        "la",
        "##dy</w>"
      ],
      [
        "coo",
        "##k"
      ],
      [
        "S",
        "##ally</w>"
      ],
      [
        "##gh",
        "##t"
      ],
      [
        "Jo",
        "##e</w>"
      ],
      [
        "lear",
        "##n</w>"
      ],
      [
        "##eli",
        "##e"
      ],
      [
        "wor",
        "##ry</w>"
      ],
      [
        "se",
        "##en</w>"
      ],
      [
        "##oo",
        "##l</w>"
      ],
      [
        "po",
        "##nd</w>"
      ],
      [
        "car",
        "##s</w>"
      ],
      [
        "loo",
        "##ks</w>"
      ],
      [
        "bro",
        "##ther</w>"
      ],
      [
        "c",
        "##ried</w>"
      ],
      [
        "f",
        "##ro"
      ],
      [
        "wh",
        "##y</w>"
      ],
      [
        "an",
        "##other</w>"
      ],
      [
        "Th",
        "##ere</w>"
      ],
      [
        "##ar",
        "##y</w>"
      ],
      [
        "W",
        "##ow</w>"
      ],
      [
        "pr",
        "##om"
      ],
      [
        "T",
        "##ommy</w>"
      ],
      [
        "wa",
        "##ved</w>"
      ],
      [
        "to",
        "##p</w>"
      ],
      [
        "sto",
        "##p</w>"
      ],
      [
        "flow",
        "##er</w>"
      ],
      [
        "b",
        "##unny</w>"
      ],
      [
        "par",
        "##ents</w>"
      ],
      [
        "b",
        "##ar"
      ],
      [
        "##a",
        "##ke</w>"
      ],
      [
        "l",
        "##on"
      ],
      [
        "ca",
        "##tch</w>"
      ],
      [
        "car",
        "##e</w>"
      ],
      [
        "so",
        "##ft</w>"
      ],
      [
        "n",
        "##ear</w>"
      ],
      [
        "r",
        "##i"
      ],
      [
        "##is",
        "##ed</w>"
      ],
      [
        "d",
        "##in"
      ],
      [
        "B",
        "##enny</w>"
      ],
      [
        "pa",
        "##per</w>"
      ],
      [
        "d",
        "##ri"
      ],
      [
        "un",
        "##der</w>"
      ],
      [
        "del",
        "##ic"
      ],
      [
        "##e",
        "##fully</w>"
      ],
      [
        "gre",
        "##en</w>"
      ],
      [
        "p",
        "##ro"
      ],
      [
        "le",
        "##ss"
      ],
      [
        "c",
        "##an"
      ],
      [
        "ho",
        "##le</w>"
      ],
      [
        "tre",
        "##es</w>"
      ],
      [
        "s",
        "##k"
      ],
      [
        "surpri",
        "##se</w>"
      ],
      [
        "rememb",
        "##ered</w>"
      ],
      [
        "beh",
        "##ind</w>"
      ],
      [
        "yell",
        "##ow</w>"
      ],
      [
        "##d",
        "##i"
      ],
      [
        "##u",
        "##ed</w>"
      ],
      [
        "less",
        "##on</w>"
      ],
      [
        "wor",
        "##ked</w>"
      ],
      [
        "##r",
        "##ow</w>"
      ],
      [
        "run",
        "##ning</w>"
      ],
      [
        "f",
        "##ull</w>"
      ],
      [
        "ho",
        "##pped</w>"
      ],
      [
        "g",
        "##u"
      ],
      [
        "tou",
        "##ch</w>"
      ],
      [
        "m",
        "##om"
      ],
      [
        "##e",
        "##s"
      ],
      [
        "##e",
        "##ddy</w>"
      ],
      [
        "fl",
        "##oor</w>"
      ],
      [
        "##rea",
        "##m"
      ],
      [
        "w",
        "##ished</w>"
      ],
      [
        "##a",
        "##c"
      ],
      [
        "bl",
        "##ocks</w>"
      ],
      [
        "##ow",
        "##ing</w>"
      ],
      [
        "lo",
        "##st</w>"
      ],
      [
        "##ay",
        "##ed</w>"
      ],
      [
        "happ",
        "##ily</w>"
      ],
      [
        "##z",
        "##e</w>"
      ],
      [
        "##z",
        "##ing</w>"
      ],
      [
        "nee",
        "##ded</w>"
      ],
      [
        "y",
        "##ears</w>"
      ],
      [
        "do",
        "##ing</w>"
      ],
      [
        "E",
        "##m"
      ],
      [
        "m",
        "##ouse</w>"
      ],
      [
        "##in",
        "##g"
      ],
      [
        "d",
        "##ir"
      ],
      [
        "t",
        "##rea"
      ],
      [
        "co",
        "##ld</w>"
      ],
      [
        "A",
        "##t</w>"
      ],
      [
        "butterf",
        "##ly</w>"
      ],
      [
        "F",
        "##in"
      ],
      [
        "##u",
        "##ff"
      ],
      [
        "car",
        "##efully</w>"
      ],
      [
        "pi",
        "##ck</w>"
      ],
      [
        "thin",
        "##k</w>"
      ],
      [
        "s",
        "##un"
      ],
      [
        "##p",
        "##e</w>"
      ],
      [
        "li",
        "##kes</w>"
      ],
      [
        "clim",
        "##b"
      ],
      [
        "surpri",
        "##sed</w>"
      ],
      [
        "le",
        "##ft</w>"
      ],
      [
        "pict",
        "##ure</w>"
      ],
      [
        "##ch",
        "##ing</w>"
      ],
      [
        "enjo",
        "##yed</w>"
      ],
      [
        "hel",
        "##d</w>"
      ],
      [
        "fin",
        "##ished</w>"
      ],
      [
        "m",
        "##e"
      ],
      [
        "t",
        "##ell</w>"
      ],
      [
        "sa",
        "##t</w>"
      ],
      [
        "\"",
        "##.</w>"
      ],
      [
        "##d",
        "##ge</w>"
      ],
      [
        "w",
        "##rong</w>"
      ],
      [
        "i",
        "##ce</w>"
      ],
      [
        "p",
        "##erf"
      ],
      [
        "won",
        "##der"
      ],
      [
        "##it",
        "##ing</w>"
      ],
      [
        "##m",
        "##er</w>"
      ],
      [
        "foll",
        "##owed</w>"
      ],
      [
        "##e",
        "##e</w>"
      ],
      [
        "Fin",
        "##ally</w>"
      ],
      [
        "ch",
        "##il"
      ],
      [
        "ar",
        "##ri"
      ],
      [
        "h",
        "##ear</w>"
      ],
      [
        "B",
        "##illy</w>"
      ],
      [
        "mo",
        "##ve</w>"
      ],
      [
        "w",
        "##ind</w>"
      ],
      [
        "her",
        "##self</w>"
      ],
      [
        "##ell",
        "##o</w>"
      ],
      [
        "d",
        "##ark</w>"
      ],
      [
        "any",
        "##thing</w>"
      ],
      [
        "##c",
        "##ed</w>"
      ],
      [
        "cont",
        "##in"
      ],
      [
        "##dr",
        "##en</w>"
      ],
      [
        "d",
        "##a"
      ],
      [
        "clo",
        "##se</w>"
      ],
      [
        "##i",
        "##p</w>"
      ],
      [
        "m",
        "##i"
      ],
      [
        "chil",
        "##dren</w>"
      ],
      [
        "frien",
        "##dly</w>"
      ],
      [
        "##ar",
        "##ds</w>"
      ],
      [
        "mu",
        "##s"
      ],
      [
        "ha",
        "##t</w>"
      ],
      [
        "coo",
        "##l</w>"
      ],
      [
        "bu",
        "##y</w>"
      ],
      [
        "##re",
        "##l</w>"
      ],
      [
        "Da",
        "##isy</w>"
      ],
      [
        "wonder",
        "##ful</w>"
      ],
      [
        "##b",
        "##o"
      ],
      [
        "##en",
        "##s</w>"
      ],
      [
        "arri",
        "##ved</w>"
      ],
      [
        "H",
        "##ello</w>"
      ],
      [
        "pl",
        "##ease</w>"
      ],
      [
        "ag",
        "##re"
      ],
      [
        "h",
        "##ill</w>"
      ],
      [
        "delic",
        "##ious</w>"
      ],
      [
        "ba",
        "##g</w>"
      ],
      [
        "s",
        "##ound</w>"
      ],
      [
        "##s",
        "##tle</w>"
      ],
      [
        "color",
        "##s</w>"
      ],
      [
        "grand",
        "##ma</w>"
      ],
      [
        "M",
        "##olly</w>"
      ],
      [
        "some",
        "##one</w>"
      ],
      [
        "r",
        "##ain</w>"
      ],
      [
        "cou",
        "##n"
      ],
      [
        "ta",
        "##ble</w>"
      ],
      [
        "fil",
        "##led</w>"
      ],
      [
        "##e",
        "##b"
      ],
      [
        "l",
        "##l</w>"
      ],
      [
        "ow",
        "##n</w>"
      ],
      [
        "g",
        "##one</w>"
      ],
      [
        "st",
        "##e"
      ],
      [
        "t",
        "##all</w>"
      ],
      [
        "fro",
        "##g</w>"
      ],
      [
        "contin",
        "##ued</w>"
      ],
      [
        "bro",
        "##ken</w>"
      ],
      [
        "##c",
        "##es</w>"
      ],
      [
        "ab",
        "##le</w>"
      ],
      [
        "lea",
        "##ves</w>"
      ],
      [
        "##a",
        "##g"
      ],
      [
        "fa",
        "##r</w>"
      ],
      [
        "##u",
        "##m</w>"
      ],
      [
        "sw",
        "##ing</w>"
      ],
      [
        "clim",
        "##b</w>"
      ],
      [
        "wan",
        "##ts</w>"
      ],
      [
        "el",
        "##se</w>"
      ],
      [
        "st",
        "##ick</w>"
      ],
      [
        "sw",
        "##eet</w>"
      ],
      [
        "f",
        "##ru"
      ],
      [
        "##en",
        "##ce</w>"
      ],
      [
        "##um",
        "##b"
      ],
      [
        "##er",
        "##ous</w>"
      ],
      [
        "v",
        "##is"
      ],
      [
        "as",
        "##k</w>"
      ],
      [
        "rea",
        "##d</w>"
      ],
      [
        "crea",
        "##m</w>"
      ],
      [
        "##ea",
        "##d</w>"
      ],
      [
        "##ri",
        "##es</w>"
      ],
      [
        "##or",
        "##n</w>"
      ],
      [
        "win",
        "##dow</w>"
      ],
      [
        "##uff",
        "##y</w>"
      ],
      [
        "sp",
        "##o"
      ],
      [
        "li",
        "##on</w>"
      ],
      [
        "##et",
        "##ting</w>"
      ],
      [
        "ba",
        "##by</w>"
      ],
      [
        "p",
        "##ink</w>"
      ],
      [
        "jum",
        "##p</w>"
      ],
      [
        "T",
        "##o"
      ],
      [
        "##a",
        "##p</w>"
      ],
      [
        "p",
        "##er"
      ],
      [
        "po",
        "##in"
      ],
      [
        "ama",
        "##zing</w>"
      ],
      [
        "y",
        "##es</w>"
      ],
      [
        "fir",
        "##e</w>"
      ],
      [
        "an",
        "##y</w>"
      ],
      [
        "ac",
        "##c"
      ],
      [
        "forg",
        "##ot</w>"
      ],
      [
        "##s",
        "##n</w>"
      ],
      [
        "boo",
        "##ks</w>"
      ],
      [
        "g",
        "##etting</w>"
      ],
      [
        "m",
        "##ess</w>"
      ],
      [
        "h",
        "##ot</w>"
      ],
      [
        "en",
        "##ough</w>"
      ],
      [
        "pict",
        "##ures</w>"
      ],
      [
        "##am",
        "##es</w>"
      ],
      [
        "ca",
        "##stle</w>"
      ],
      [
        "w",
        "##oo"
      ],
      [
        "l",
        "##au"
      ],
      [
        "lau",
        "##gh</w>"
      ],
      [
        "agre",
        "##ed</w>"
      ],
      [
        "##s",
        "##ure</w>"
      ],
      [
        "underst",
        "##and</w>"
      ],
      [
        "wh",
        "##ite</w>"
      ],
      [
        "din",
        "##ner</w>"
      ],
      [
        "squ",
        "##ir"
      ],
      [
        "A",
        "##my</w>"
      ],
      [
        "O",
        "##K</w>"
      ],
      [
        "st",
        "##ayed</w>"
      ],
      [
        "pu",
        "##l"
      ],
      [
        "mor",
        "##ning</w>"
      ],
      [
        "cook",
        "##ies</w>"
      ],
      [
        "o",
        "##r"
      ],
      [
        "p",
        "##ea"
      ],
      [
        "scar",
        "##y</w>"
      ],
      [
        "g",
        "##en"
      ],
      [
        "mo",
        "##ther</w>"
      ],
      [
        "tr",
        "##ying</w>"
      ],
      [
        "Wh",
        "##y</w>"
      ],
      [
        "ha",
        "##ir</w>"
      ],
      [
        "J",
        "##ill</w>"
      ],
      [
        "some",
        "##times</w>"
      ],
      [
        "fin",
        "##ally</w>"
      ],
      [
        "climb",
        "##ed</w>"
      ],
      [
        "o",
        "##thers</w>"
      ],
      [
        "s",
        "##et</w>"
      ],
      [
        "smil",
        "##es</w>"
      ],
      [
        "hun",
        "##gry</w>"
      ],
      [
        "w",
        "##et</w>"
      ],
      [
        "fi",
        "##x</w>"
      ],
      [
        "##at",
        "##ion</w>"
      ],
      [
        "ta",
        "##st"
      ],
      [
        "G",
        "##ran"
      ],
      [
        "##m",
        "##s</w>"
      ],
      [
        "clo",
        "##th"
      ],
      [
        "##g",
        "##on</w>"
      ],
      [
        "##z",
        "##z"
      ],
      [
        "##ro",
        "##ss</w>"
      ],
      [
        "b",
        "##rou"
      ],
      [
        "h",
        "##ol"
      ],
      [
        "brou",
        "##ght</w>"
      ],
      [
        "##el",
        "##d</w>"
      ],
      [
        "cloth",
        "##es</w>"
      ],
      [
        "r",
        "##ol"
      ],
      [
        "tur",
        "##ned</w>"
      ],
      [
        "da",
        "##ddy</w>"
      ],
      [
        "ma",
        "##kes</w>"
      ],
      [
        "##rea",
        "##m</w>"
      ],
      [
        "list",
        "##ened</w>"
      ],
      [
        "p",
        "##ol"
      ],
      [
        "tal",
        "##k</w>"
      ],
      [
        "a",
        "##ir</w>"
      ],
      [
        "f",
        "##ew</w>"
      ],
      [
        "##oc",
        "##ket</w>"
      ],
      [
        "##s",
        "##ted</w>"
      ],
      [
        "b",
        "##all"
      ],
      [
        "##or",
        "##ing</w>"
      ],
      [
        "b",
        "##el"
      ],
      [
        "every",
        "##thing</w>"
      ],
      [
        "st",
        "##range</w>"
      ],
      [
        "##ing",
        "##ing</w>"
      ],
      [
        "##k",
        "##ey</w>"
      ],
      [
        "se",
        "##ar"
      ],
      [
        "Gran",
        "##d"
      ],
      [
        "bea",
        "##ch</w>"
      ],
      [
        "pu",
        "##ppy</w>"
      ],
      [
        "r",
        "##ide</w>"
      ],
      [
        "h",
        "##on"
      ],
      [
        "re",
        "##st</w>"
      ],
      [
        "than",
        "##k</w>"
      ],
      [
        "wa",
        "##ited</w>"
      ],
      [
        "F",
        "##l"
      ],
      [
        "li",
        "##ght</w>"
      ],
      [
        "mom",
        "##ent</w>"
      ],
      [
        "ama",
        "##zed</w>"
      ],
      [
        "##an",
        "##ce</w>"
      ],
      [
        "##ar",
        "##k"
      ],
      [
        "st",
        "##re"
      ],
      [
        "se",
        "##e"
      ],
      [
        "e",
        "##m"
      ],
      [
        "al",
        "##one</w>"
      ],
      [
        "S",
        "##oon</w>"
      ],
      [
        "##e",
        "##ts</w>"
      ],
      [
        "ta",
        "##il</w>"
      ],
      [
        "J",
        "##u"
      ],
      [
        "C",
        "##ome</w>"
      ],
      [
        "##pp",
        "##ing</w>"
      ],
      [
        "##el",
        "##c"
      ],
      [
        "s",
        "##illy</w>"
      ],
      [
        "wa",
        "##sn</w>"
      ],
      [
        "##ut",
        "##e</w>"
      ],
      [
        "##m",
        "##ing</w>"
      ],
      [
        "##c",
        "##ked</w>"
      ],
      [
        "t",
        "##eddy</w>"
      ],
      [
        "qu",
        "##i"
      ],
      [
        "as",
        "##ks</w>"
      ],
      [
        "##at",
        "##ing</w>"
      ],
      [
        "woo",
        "##ds</w>"
      ],
      [
        "d",
        "##uck</w>"
      ],
      [
        "##ch",
        "##es</w>"
      ],
      [
        "st",
        "##u"
      ],
      [
        "A",
        "##ll</w>"
      ],
      [
        "##ir",
        "##y</w>"
      ],
      [
        "jo",
        "##y</w>"
      ],
      [
        "lea",
        "##ve</w>"
      ],
      [
        "##op",
        "##e</w>"
      ],
      [
        "s",
        "##is"
      ],
      [
        "A",
        "##l"
      ],
      [
        "hi",
        "##de</w>"
      ],
      [
        "ba",
        "##s"
      ],
      [
        "dra",
        "##w</w>"
      ],
      [
        "wh",
        "##is"
      ],
      [
        "##c",
        "##ess</w>"
      ],
      [
        "squir",
        "##rel</w>"
      ],
      [
        "cl",
        "##ou"
      ],
      [
        "##o",
        "##o</w>"
      ],
      [
        "##la",
        "##r</w>"
      ],
      [
        "##t",
        "##en</w>"
      ],
      [
        "##i",
        "##gh"
      ],
      [
        "##ar",
        "##t</w>"
      ],
      [
        "fl",
        "##ying</w>"
      ],
      [
        "##o",
        "##ke</w>"
      ],
      [
        "##gg",
        "##er</w>"
      ],
      [
        "##th",
        "##y</w>"
      ],
      [
        "##ow",
        "##ly</w>"
      ],
      [
        "la",
        "##ke</w>"
      ],
      [
        "##t",
        "##er"
      ],
      [
        "pul",
        "##led</w>"
      ],
      [
        "m",
        "##ight</w>"
      ],
      [
        "s",
        "##ec"
      ],
      [
        "##s",
        "##es</w>"
      ],
      [
        "##el",
        "##led</w>"
      ],
      [
        "prom",
        "##ised</w>"
      ],
      [
        "##re",
        "##w</w>"
      ],
      [
        "dan",
        "##ce</w>"
      ],
      [
        "M",
        "##am"
      ],
      [
        "tow",
        "##ards</w>"
      ],
      [
        "##ec",
        "##es</w>"
      ],
      [
        "##p",
        "##es</w>"
      ],
      [
        "pi",
        "##eces</w>"
      ],
      [
        "run",
        "##s</w>"
      ],
      [
        "O",
        "##h</w>"
      ],
      [
        "shar",
        "##ed</w>"
      ],
      [
        "perf",
        "##ect</w>"
      ],
      [
        "ca",
        "##u"
      ],
      [
        "bi",
        "##gger</w>"
      ],
      [
        "gra",
        "##t"
      ],
      [
        "s",
        "##ing</w>"
      ],
      [
        "thin",
        "##ks</w>"
      ],
      [
        "mor",
        "##al</w>"
      ],
      [
        "##s",
        "##c"
      ],
      [
        "fo",
        "##x</w>"
      ],
      [
        "w",
        "##ear</w>"
      ],
      [
        "##um",
        "##p"
      ],
      [
        "Mam",
        "##a</w>"
      ],
      [
        "ow",
        "##ner</w>"
      ],
      [
        "mag",
        "##ic"
      ],
      [
        "sis",
        "##ter</w>"
      ],
      [
        "##v",
        "##y</w>"
      ],
      [
        "li",
        "##ving</w>"
      ],
      [
        "sp",
        "##ark"
      ],
      [
        "##c",
        "##o"
      ],
      [
        "b",
        "##ran"
      ],
      [
        "st",
        "##r"
      ],
      [
        "ba",
        "##ck"
      ],
      [
        "##uc",
        "##ky</w>"
      ],
      [
        "##c",
        "##ket</w>"
      ],
      [
        "dol",
        "##ls</w>"
      ],
      [
        "can",
        "##dy</w>"
      ],
      [
        "##s",
        "##ing</w>"
      ],
      [
        "par",
        "##ty</w>"
      ],
      [
        "##v",
        "##en</w>"
      ],
      [
        "every",
        "##where</w>"
      ],
      [
        "##i",
        "##ent</w>"
      ],
      [
        "mus",
        "##ic</w>"
      ],
      [
        "grat",
        "##eful</w>"
      ],
      [
        "pret",
        "##end</w>"
      ],
      [
        "O",
        "##kay</w>"
      ],
      [
        "S",
        "##ure</w>"
      ],
      [
        "b",
        "##elie"
      ],
      [
        "##or",
        "##t</w>"
      ],
      [
        "bi",
        "##ke</w>"
      ],
      [
        "sl",
        "##owly</w>"
      ],
      [
        "w",
        "##on</w>"
      ],
      [
        "w",
        "##elc"
      ],
      [
        "su",
        "##ch</w>"
      ],
      [
        "m",
        "##ou"
      ],
      [
        "##s",
        "##et</w>"
      ],
      [
        "s",
        "##ide</w>"
      ],
      [
        "ra",
        "##in"
      ],
      [
        "##an",
        "##g"
      ],
      [
        "bl",
        "##an"
      ],
      [
        "fl",
        "##a"
      ],
      [
        "##ep",
        "##h"
      ],
      [
        "##s",
        "##w"
      ],
      [
        "##c",
        "##le</w>"
      ],
      [
        "wor",
        "##ried</w>"
      ],
      [
        "fa",
        "##ster</w>"
      ],
      [
        "S",
        "##t"
      ],
      [
        "I",
        "##n</w>"
      ],
      [
        "d",
        "##eep</w>"
      ],
      [
        "I",
        "##n"
      ],
      [
        "d",
        "##r"
      ],
      [
        "##u",
        "##ally</w>"
      ],
      [
        "pl",
        "##an"
      ],
      [
        "an",
        "##sw"
      ],
      [
        "bro",
        "##ke</w>"
      ],
      [
        "mon",
        "##ey</w>"
      ],
      [
        "m",
        "##et</w>"
      ],
      [
        "si",
        "##g"
      ],
      [
        "##it",
        "##s</w>"
      ],
      [
        "s",
        "##it</w>"
      ],
      [
        "##our",
        "##s</w>"
      ],
      [
        "magic",
        "##al</w>"
      ],
      [
        "color",
        "##ful</w>"
      ],
      [
        "##t",
        "##ain</w>"
      ],
      [
        "jo",
        "##b</w>"
      ],
      [
        "##i",
        "##ch</w>"
      ],
      [
        "a",
        "##f"
      ],
      [
        "dan",
        "##g"
      ],
      [
        "sa",
        "##nd</w>"
      ],
      [
        "hel",
        "##ping</w>"
      ],
      [
        "do",
        "##ct"
      ],
      [
        "bu",
        "##g</w>"
      ],
      [
        "Da",
        "##ddy</w>"
      ],
      [
        "vis",
        "##it</w>"
      ],
      [
        "ra",
        "##ce</w>"
      ],
      [
        "sl",
        "##eep</w>"
      ],
      [
        "##i",
        "##g"
      ],
      [
        "jo",
        "##in</w>"
      ],
      [
        "##m",
        "##an</w>"
      ],
      [
        "s",
        "##oun"
      ],
      [
        "##a",
        "##ined</w>"
      ],
      [
        "cr",
        "##ying</w>"
      ],
      [
        "c",
        "##ut</w>"
      ],
      [
        "Th",
        "##e"
      ],
      [
        "k",
        "##is"
      ],
      [
        "e",
        "##ar"
      ],
      [
        "mo",
        "##st</w>"
      ],
      [
        "w",
        "##ea"
      ],
      [
        "##d",
        "##ered</w>"
      ],
      [
        "dang",
        "##erous</w>"
      ],
      [
        "##ow",
        "##l</w>"
      ],
      [
        "ste",
        "##pped</w>"
      ],
      [
        "com",
        "##p"
      ],
      [
        "##ell",
        "##s</w>"
      ],
      [
        "##x",
        "##ed</w>"
      ],
      [
        "J",
        "##immy</w>"
      ],
      [
        "sp",
        "##la"
      ],
      [
        "w",
        "##r"
      ],
      [
        "Ju",
        "##st</w>"
      ],
      [
        "tra",
        "##in</w>"
      ],
      [
        "hea",
        "##vy</w>"
      ],
      [
        "##a",
        "##pp"
      ],
      [
        "far",
        "##mer</w>"
      ],
      [
        "mon",
        "##ster</w>"
      ],
      [
        "prin",
        "##cess</w>"
      ],
      [
        "r",
        "##ec"
      ],
      [
        "##is",
        "##es</w>"
      ],
      [
        "##e",
        "##m</w>"
      ],
      [
        "rea",
        "##ch</w>"
      ],
      [
        "rememb",
        "##er</w>"
      ],
      [
        "##ow",
        "##er</w>"
      ],
      [
        "Fl",
        "##uffy</w>"
      ],
      [
        "P",
        "##l"
      ],
      [
        "sm",
        "##art</w>"
      ],
      [
        "tw",
        "##ins</w>"
      ],
      [
        "wor",
        "##ds</w>"
      ],
      [
        "bu",
        "##il"
      ],
      [
        "##o",
        "##se</w>"
      ],
      [
        "ri",
        "##ver</w>"
      ],
      [
        "Em",
        "##ma</w>"
      ],
      [
        "ac",
        "##ross</w>"
      ],
      [
        "dir",
        "##ty</w>"
      ],
      [
        "##or",
        "##ed</w>"
      ],
      [
        "dis",
        "##app"
      ],
      [
        "e",
        "##ating</w>"
      ],
      [
        "f",
        "##oo"
      ],
      [
        "##ear",
        "##ed</w>"
      ],
      [
        "##h",
        "##out</w>"
      ],
      [
        "sa",
        "##me</w>"
      ],
      [
        "st",
        "##uck</w>"
      ],
      [
        "clo",
        "##sed</w>"
      ],
      [
        "dra",
        "##gon</w>"
      ],
      [
        "fi",
        "##eld</w>"
      ],
      [
        "w",
        "##ou"
      ],
      [
        "th",
        "##rew</w>"
      ],
      [
        "tow",
        "##er</w>"
      ],
      [
        "mou",
        "##th</w>"
      ],
      [
        "sp",
        "##ot</w>"
      ],
      [
        "s",
        "##ong</w>"
      ],
      [
        "##ti",
        "##on</w>"
      ],
      [
        "hi",
        "##gh"
      ],
      [
        "doct",
        "##or</w>"
      ],
      [
        "##ar",
        "##e</w>"
      ],
      [
        "sw",
        "##im</w>"
      ],
      [
        "acc",
        "##id"
      ],
      [
        "ti",
        "##ght</w>"
      ],
      [
        "cr",
        "##ay"
      ],
      [
        "M",
        "##um</w>"
      ],
      [
        "f",
        "##ur"
      ],
      [
        "d",
        "##ream"
      ],
      [
        "##v",
        "##ely</w>"
      ],
      [
        "b",
        "##owl</w>"
      ],
      [
        "dra",
        "##w"
      ],
      [
        "##en",
        "##d"
      ],
      [
        "feel",
        "##s</w>"
      ],
      [
        "ball",
        "##oon</w>"
      ],
      [
        "##c",
        "##ks</w>"
      ],
      [
        "Grand",
        "##ma</w>"
      ],
      [
        "b",
        "##ite</w>"
      ],
      [
        "blan",
        "##ket</w>"
      ],
      [
        "M",
        "##ary</w>"
      ],
      [
        "pu",
        "##shed</w>"
      ],
      [
        "##c",
        "##y</w>"
      ],
      [
        "##v",
        "##er"
      ],
      [
        "f",
        "##r"
      ],
      [
        "y",
        "##ear</w>"
      ],
      [
        "trea",
        "##sure</w>"
      ],
      [
        "##ch",
        "##ool</w>"
      ],
      [
        "hop",
        "##ed</w>"
      ],
      [
        "L",
        "##a"
      ],
      [
        "##oc",
        "##ked</w>"
      ],
      [
        "##r",
        "##oom</w>"
      ],
      [
        "##o",
        "##p</w>"
      ],
      [
        "belie",
        "##ve</w>"
      ],
      [
        "wit",
        "##hout</w>"
      ],
      [
        "tur",
        "##n</w>"
      ],
      [
        "T",
        "##w"
      ],
      [
        "H",
        "##i</w>"
      ],
      [
        "o",
        "##ff"
      ],
      [
        "sp",
        "##r"
      ],
      [
        "cla",
        "##pped</w>"
      ],
      [
        "wou",
        "##ldn</w>"
      ],
      [
        "w",
        "##i"
      ],
      [
        "per",
        "##s"
      ],
      [
        "wal",
        "##l</w>"
      ],
      [
        "##l",
        "##thy</w>"
      ],
      [
        "Pl",
        "##ease</w>"
      ],
      [
        "l",
        "##un"
      ],
      [
        "##li",
        "##e</w>"
      ],
      [
        "##v",
        "##ered</w>"
      ],
      [
        "##e",
        "##ss"
      ],
      [
        "fa",
        "##iry</w>"
      ],
      [
        "s",
        "##chool</w>"
      ],
      [
        "che",
        "##ered</w>"
      ],
      [
        "c",
        "##or"
      ],
      [
        "tow",
        "##n</w>"
      ],
      [
        "##ch",
        "##er</w>"
      ],
      [
        "##el",
        "##s</w>"
      ],
      [
        "f",
        "##ence</w>"
      ],
      [
        "star",
        "##t</w>"
      ],
      [
        "y",
        "##ard</w>"
      ],
      [
        "cou",
        "##r"
      ],
      [
        "br",
        "##own</w>"
      ],
      [
        "m",
        "##in"
      ],
      [
        "##ic",
        "##y</w>"
      ],
      [
        "dro",
        "##ve</w>"
      ],
      [
        "b",
        "##en"
      ],
      [
        "no",
        "##ises</w>"
      ],
      [
        "##ent",
        "##ually</w>"
      ],
      [
        "advent",
        "##ures</w>"
      ],
      [
        "high",
        "##er</w>"
      ],
      [
        "lon",
        "##ely</w>"
      ],
      [
        "to",
        "##day</w>"
      ],
      [
        "el",
        "##eph"
      ],
      [
        "qui",
        "##et</w>"
      ],
      [
        "brea",
        "##k</w>"
      ],
      [
        "##e",
        "##ce</w>"
      ],
      [
        "s",
        "##ou"
      ],
      [
        "welc",
        "##ome</w>"
      ],
      [
        "up",
        "##set</w>"
      ],
      [
        "tur",
        "##ns</w>"
      ],
      [
        "b",
        "##al"
      ],
      [
        "pain",
        "##t</w>"
      ],
      [
        "lon",
        "##ger</w>"
      ],
      [
        "sw",
        "##ings</w>"
      ],
      [
        "bl",
        "##ack</w>"
      ],
      [
        "ne",
        "##ar"
      ],
      [
        "win",
        "##gs</w>"
      ],
      [
        "g",
        "##ames</w>"
      ],
      [
        "cour",
        "##se</w>"
      ],
      [
        "##d",
        "##le</w>"
      ],
      [
        "expl",
        "##ained</w>"
      ],
      [
        "##it",
        "##h</w>"
      ],
      [
        "gen",
        "##tle</w>"
      ],
      [
        "ch",
        "##ee"
      ],
      [
        "tea",
        "##cher</w>"
      ],
      [
        "su",
        "##ddenly</w>"
      ],
      [
        "ch",
        "##ild</w>"
      ],
      [
        "##en",
        "##ever</w>"
      ],
      [
        "##our",
        "##n"
      ],
      [
        "san",
        "##d"
      ],
      [
        "In",
        "##side</w>"
      ],
      [
        "j",
        "##ourn"
      ],
      [
        "se",
        "##em"
      ],
      [
        "sec",
        "##re"
      ],
      [
        "##u",
        "##l"
      ],
      [
        "##y",
        "##st"
      ],
      [
        "v",
        "##e"
      ],
      [
        "o",
        "##b"
      ],
      [
        "##t",
        "##ur"
      ],
      [
        "##t",
        "##o</w>"
      ],
      [
        "##y",
        "##ard</w>"
      ],
      [
        "##er",
        "##ry</w>"
      ],
      [
        "t",
        "##rou"
      ],
      [
        "in",
        "##st"
      ],
      [
        "sou",
        "##p</w>"
      ],
      [
        "sa",
        "##il"
      ],
      [
        "ne",
        "##igh"
      ],
      [
        "##in",
        "##ing</w>"
      ],
      [
        "dro",
        "##pped</w>"
      ],
      [
        "##or",
        "##row</w>"
      ],
      [
        "sn",
        "##ow"
      ],
      [
        "y",
        "##oun"
      ],
      [
        "hu",
        "##gs</w>"
      ],
      [
        "pi",
        "##ece</w>"
      ],
      [
        "##i",
        "##pped</w>"
      ],
      [
        "anim",
        "##al</w>"
      ],
      [
        "neigh",
        "##b"
      ],
      [
        "##il",
        "##l"
      ],
      [
        "sw",
        "##am</w>"
      ],
      [
        "stor",
        "##ies</w>"
      ],
      [
        "O",
        "##n</w>"
      ],
      [
        "san",
        "##g</w>"
      ],
      [
        "back",
        "##yard</w>"
      ],
      [
        "##it",
        "##ting</w>"
      ],
      [
        "pret",
        "##en"
      ],
      [
        "La",
        "##ter</w>"
      ],
      [
        "sig",
        "##n</w>"
      ],
      [
        "The",
        "##ir</w>"
      ],
      [
        "bu",
        "##ild</w>"
      ],
      [
        "r",
        "##ocks</w>"
      ],
      [
        "w",
        "##ish</w>"
      ],
      [
        "S",
        "##ome"
      ],
      [
        "##o",
        "##g"
      ],
      [
        "forg",
        "##et</w>"
      ],
      [
        "w",
        "##ell</w>"
      ],
      [
        "n",
        "##augh"
      ],
      [
        "p",
        "##et</w>"
      ],
      [
        "l",
        "##ate</w>"
      ],
      [
        "p",
        "##h"
      ],
      [
        "app",
        "##le</w>"
      ],
      [
        "mu",
        "##st</w>"
      ],
      [
        "S",
        "##am"
      ],
      [
        "##ir",
        "##e</w>"
      ],
      [
        "naugh",
        "##ty</w>"
      ],
      [
        "##o",
        "##s"
      ],
      [
        "ta",
        "##king</w>"
      ],
      [
        "o",
        "##range</w>"
      ],
      [
        "d",
        "##ry</w>"
      ],
      [
        "mag",
        "##ic</w>"
      ],
      [
        "##fu",
        "##sed</w>"
      ],
      [
        "##ou",
        "##ght</w>"
      ],
      [
        "p",
        "##ocket</w>"
      ],
      [
        "s",
        "##ol"
      ],
      [
        "j",
        "##ar</w>"
      ],
      [
        "##en",
        "##ing</w>"
      ],
      [
        "sw",
        "##im"
      ],
      [
        "expl",
        "##oring</w>"
      ],
      [
        "ow",
        "##l</w>"
      ],
      [
        "f",
        "##ight</w>"
      ],
      [
        "ex",
        "##p"
      ],
      [
        "ho",
        "##ld</w>"
      ],
      [
        "al",
        "##ong</w>"
      ],
      [
        "seem",
        "##ed</w>"
      ],
      [
        "hi",
        "##t</w>"
      ],
      [
        "s",
        "##inging</w>"
      ],
      [
        "##t",
        "##a"
      ],
      [
        "##p",
        "##a</w>"
      ],
      [
        "sh",
        "##ook</w>"
      ],
      [
        "cau",
        "##ght</w>"
      ],
      [
        "mo",
        "##ved</w>"
      ],
      [
        "com",
        "##f"
      ],
      [
        "near",
        "##by</w>"
      ],
      [
        "w",
        "##e"
      ],
      [
        "w",
        "##ise</w>"
      ],
      [
        "youn",
        "##g</w>"
      ],
      [
        "##g",
        "##u"
      ],
      [
        "sho",
        "##es</w>"
      ],
      [
        "h",
        "##or"
      ],
      [
        "##t",
        "##tle</w>"
      ],
      [
        "lun",
        "##ch</w>"
      ],
      [
        "##gg",
        "##led</w>"
      ],
      [
        "star",
        "##s</w>"
      ],
      [
        "Sam",
        "##my</w>"
      ],
      [
        "t",
        "##iny</w>"
      ],
      [
        "##c",
        "##ing</w>"
      ],
      [
        "##ea",
        "##l</w>"
      ],
      [
        "thou",
        "##gh</w>"
      ],
      [
        "w",
        "##oke</w>"
      ],
      [
        "##it",
        "##t"
      ],
      [
        "##p",
        "##h"
      ],
      [
        "to",
        "##m"
      ],
      [
        "##ght",
        "##ly</w>"
      ],
      [
        "##ent",
        "##ly</w>"
      ],
      [
        "##o",
        "##ck</w>"
      ],
      [
        "##r",
        "##ot</w>"
      ],
      [
        "eleph",
        "##ant</w>"
      ],
      [
        "p",
        "##ra"
      ],
      [
        "ben",
        "##ch</w>"
      ],
      [
        "secre",
        "##t</w>"
      ],
      [
        "m",
        "##il"
      ],
      [
        "r",
        "##elie"
      ],
      [
        "re",
        "##sp"
      ],
      [
        "se",
        "##a</w>"
      ],
      [
        "mon",
        "##key</w>"
      ],
      [
        "sha",
        "##pes</w>"
      ],
      [
        "enjo",
        "##y</w>"
      ],
      [
        "##l",
        "##o</w>"
      ],
      [
        "##oun",
        "##tain</w>"
      ],
      [
        "##ti",
        "##ve</w>"
      ],
      [
        "##or",
        "##s</w>"
      ],
      [
        "sn",
        "##ow</w>"
      ],
      [
        "##i",
        "##ons</w>"
      ],
      [
        "hear",
        "##t</w>"
      ],
      [
        "C",
        "##h"
      ],
      [
        "rain",
        "##b"
      ],
      [
        "m",
        "##ine</w>"
      ],
      [
        "ar",
        "##ms</w>"
      ],
      [
        "bu",
        "##cket</w>"
      ],
      [
        "ju",
        "##ice</w>"
      ],
      [
        "bran",
        "##ch</w>"
      ],
      [
        "k",
        "##ite</w>"
      ],
      [
        "b",
        "##ur"
      ],
      [
        "n",
        "##ap</w>"
      ],
      [
        "hel",
        "##lo</w>"
      ],
      [
        "##er",
        "##ful</w>"
      ],
      [
        "be",
        "##e</w>"
      ],
      [
        "ta",
        "##kes</w>"
      ],
      [
        "bu",
        "##sy</w>"
      ],
      [
        "cha",
        "##ir</w>"
      ],
      [
        "s",
        "##ick</w>"
      ],
      [
        "in",
        "##v"
      ],
      [
        "##ra",
        "##id</w>"
      ],
      [
        "##er",
        "##ries</w>"
      ],
      [
        "r",
        "##ound</w>"
      ],
      [
        "br",
        "##ing</w>"
      ],
      [
        "##augh",
        "##ter</w>"
      ],
      [
        "af",
        "##raid</w>"
      ],
      [
        "##e",
        "##x</w>"
      ],
      [
        "##e",
        "##w"
      ],
      [
        "won",
        "##dered</w>"
      ],
      [
        "##b",
        "##l"
      ],
      [
        "##ss",
        "##y</w>"
      ],
      [
        "c",
        "##ir"
      ],
      [
        "ma",
        "##d</w>"
      ],
      [
        "M",
        "##y</w>"
      ],
      [
        "rea",
        "##l</w>"
      ],
      [
        "s",
        "##itting</w>"
      ],
      [
        "P",
        "##e"
      ],
      [
        "a",
        "##tt"
      ],
      [
        "st",
        "##ar</w>"
      ],
      [
        "##a",
        "##ce</w>"
      ],
      [
        "##oo",
        "##th</w>"
      ],
      [
        "##ir",
        "##s</w>"
      ],
      [
        "k",
        "##in"
      ],
      [
        "sw",
        "##ee"
      ],
      [
        "com",
        "##es</w>"
      ],
      [
        "accid",
        "##ent"
      ],
      [
        "##itt",
        "##ens</w>"
      ],
      [
        "accident",
        "##ally</w>"
      ],
      [
        "d",
        "##ream</w>"
      ],
      [
        "M",
        "##r</w>"
      ],
      [
        "no",
        "##se</w>"
      ],
      [
        "dis",
        "##co"
      ],
      [
        "##u",
        "##s"
      ],
      [
        "ne",
        "##st</w>"
      ],
      [
        "for",
        "##ever</w>"
      ],
      [
        "int",
        "##er"
      ],
      [
        "b",
        "##oun"
      ],
      [
        "d",
        "##es"
      ],
      [
        "n",
        "##umb"
      ],
      [
        "##ear",
        "##ing</w>"
      ],
      [
        "##dd",
        "##en</w>"
      ],
      [
        "ba",
        "##th"
      ],
      [
        "##c",
        "##eful</w>"
      ],
      [
        "dr",
        "##ink</w>"
      ],
      [
        "d",
        "##uc"
      ],
      [
        "soun",
        "##ds</w>"
      ],
      [
        "d",
        "##aughter</w>"
      ],
      [
        "sc",
        "##ream"
      ],
      [
        "gi",
        "##ft</w>"
      ],
      [
        "dri",
        "##ver</w>"
      ],
      [
        "c",
        "##ute</w>"
      ],
      [
        "e",
        "##g"
      ],
      [
        "##it",
        "##y</w>"
      ],
      [
        "p",
        "##ow"
      ],
      [
        "##bb",
        "##y</w>"
      ],
      [
        "h",
        "##ar"
      ],
      [
        "exc",
        "##iting</w>"
      ],
      [
        "bas",
        "##ket</w>"
      ],
      [
        "f",
        "##all</w>"
      ],
      [
        "##em",
        "##ent</w>"
      ],
      [
        "co",
        "##zy</w>"
      ],
      [
        "cl",
        "##ea"
      ],
      [
        "stre",
        "##et</w>"
      ],
      [
        "w",
        "##ra"
      ],
      [
        "pu",
        "##ll</w>"
      ],
      [
        "p",
        "##urp"
      ],
      [
        "##th",
        "##day</w>"
      ],
      [
        "J",
        "##en</w>"
      ],
      [
        "pa",
        "##st"
      ],
      [
        "relie",
        "##ved</w>"
      ],
      [
        "no",
        "##thing</w>"
      ],
      [
        "H",
        "##ow</w>"
      ],
      [
        "##t",
        "##ted</w>"
      ],
      [
        "hol",
        "##ding</w>"
      ],
      [
        "k",
        "##ey</w>"
      ],
      [
        "sl",
        "##ee"
      ],
      [
        "laugh",
        "##ing</w>"
      ],
      [
        "hu",
        "##ge</w>"
      ],
      [
        "far",
        "##m</w>"
      ],
      [
        "##or",
        "##m"
      ],
      [
        "##sh",
        "##ine</w>"
      ],
      [
        "im",
        "##ag"
      ],
      [
        "##o",
        "##st</w>"
      ],
      [
        "##am",
        "##p</w>"
      ],
      [
        "J",
        "##enny</w>"
      ],
      [
        "##n",
        "##t</w>"
      ],
      [
        "re",
        "##st"
      ],
      [
        "rainb",
        "##ow</w>"
      ],
      [
        "swim",
        "##ming</w>"
      ],
      [
        "i",
        "##g"
      ],
      [
        "##w",
        "##ard</w>"
      ],
      [
        "##rea",
        "##d</w>"
      ],
      [
        "d",
        "##ays</w>"
      ],
      [
        "st",
        "##ic"
      ],
      [
        "sun",
        "##shine</w>"
      ],
      [
        "cra",
        "##w"
      ],
      [
        "purp",
        "##le</w>"
      ],
      [
        "la",
        "##ter</w>"
      ],
      [
        "tou",
        "##ched</w>"
      ],
      [
        "li",
        "##fe</w>"
      ],
      [
        "chee",
        "##se</w>"
      ],
      [
        "inst",
        "##ead</w>"
      ],
      [
        "journ",
        "##ey</w>"
      ],
      [
        "##er",
        "##ious</w>"
      ],
      [
        "f",
        "##it</w>"
      ],
      [
        "mil",
        "##k</w>"
      ],
      [
        "in",
        "##c"
      ],
      [
        "##on",
        "##gs</w>"
      ],
      [
        "##n",
        "##ess</w>"
      ],
      [
        "##el",
        "##ly</w>"
      ],
      [
        "st",
        "##a"
      ],
      [
        "##ti",
        "##e</w>"
      ],
      [
        "s",
        "##unny</w>"
      ],
      [
        "##i",
        "##zed</w>"
      ],
      [
        "##g",
        "##ed</w>"
      ],
      [
        "bir",
        "##thday</w>"
      ],
      [
        "gi",
        "##ves</w>"
      ],
      [
        "sear",
        "##ched</w>"
      ],
      [
        "b",
        "##ought</w>"
      ],
      [
        "c",
        "##el"
      ],
      [
        "poin",
        "##ted</w>"
      ],
      [
        "O",
        "##f</w>"
      ],
      [
        "##ir",
        "##t</w>"
      ],
      [
        "bo",
        "##ttle</w>"
      ],
      [
        "on",
        "##to</w>"
      ],
      [
        "any",
        "##one</w>"
      ],
      [
        "M",
        "##ittens</w>"
      ],
      [
        "duc",
        "##ks</w>"
      ],
      [
        "pre",
        "##s"
      ],
      [
        "##f",
        "##ish</w>"
      ],
      [
        "##er",
        "##m"
      ],
      [
        "##sh",
        "##es</w>"
      ],
      [
        "brea",
        "##d</w>"
      ],
      [
        "re",
        "##tur"
      ],
      [
        "crea",
        "##t"
      ],
      [
        "##est",
        "##ing</w>"
      ],
      [
        "l",
        "##ucky</w>"
      ],
      [
        "##u",
        "##s</w>"
      ],
      [
        "pl",
        "##ane</w>"
      ],
      [
        "tast",
        "##y</w>"
      ],
      [
        "ca",
        "##ve</w>"
      ],
      [
        "wat",
        "##ching</w>"
      ],
      [
        "p",
        "##ot</w>"
      ],
      [
        "pu",
        "##dd"
      ],
      [
        "su",
        "##g"
      ],
      [
        "pro",
        "##bl"
      ],
      [
        "smil",
        "##ing</w>"
      ],
      [
        "L",
        "##is"
      ],
      [
        "r",
        "##ope</w>"
      ],
      [
        "exc",
        "##it"
      ],
      [
        "cray",
        "##ons</w>"
      ],
      [
        "##r",
        "##s</w>"
      ],
      [
        "foll",
        "##ow</w>"
      ],
      [
        "gr",
        "##ow</w>"
      ],
      [
        "f",
        "##ea"
      ],
      [
        "##o",
        "##ve</w>"
      ],
      [
        "sp",
        "##id"
      ],
      [
        "prom",
        "##ise</w>"
      ],
      [
        "##ort",
        "##able</w>"
      ],
      [
        "snow",
        "##man</w>"
      ],
      [
        "col",
        "##l"
      ],
      [
        "dan",
        "##ced</w>"
      ],
      [
        "##o",
        "##le</w>"
      ],
      [
        "pu",
        "##zz"
      ],
      [
        "stor",
        "##m</w>"
      ],
      [
        "inter",
        "##esting</w>"
      ],
      [
        "##r",
        "##ed</w>"
      ],
      [
        "##a",
        "##st</w>"
      ],
      [
        "shar",
        "##p</w>"
      ],
      [
        "tal",
        "##ked</w>"
      ],
      [
        "pers",
        "##on</w>"
      ],
      [
        "sand",
        "##w"
      ],
      [
        "butt",
        "##on</w>"
      ],
      [
        "W",
        "##ith</w>"
      ],
      [
        "n",
        "##a"
      ],
      [
        "H",
        "##ey</w>"
      ],
      [
        "b",
        "##an"
      ],
      [
        "##e",
        "##en</w>"
      ],
      [
        "##pp",
        "##er</w>"
      ],
      [
        "w",
        "##ide</w>"
      ],
      [
        "tre",
        "##at</w>"
      ],
      [
        "f",
        "##ree</w>"
      ],
      [
        "j",
        "##un"
      ],
      [
        "##an",
        "##dy</w>"
      ],
      [
        "sm",
        "##elled</w>"
      ],
      [
        "hon",
        "##ey</w>"
      ],
      [
        "Some",
        "##times</w>"
      ],
      [
        "pl",
        "##an</w>"
      ],
      [
        "##sh",
        "##ing</w>"
      ],
      [
        "lo",
        "##vely</w>"
      ],
      [
        "qu",
        "##est"
      ],
      [
        "##ep",
        "##end"
      ],
      [
        "un",
        "##i"
      ],
      [
        "a",
        "##p"
      ],
      [
        "app",
        "##les</w>"
      ],
      [
        "wr",
        "##ite</w>"
      ],
      [
        "##r",
        "##e</w>"
      ],
      [
        "bu",
        "##sh</w>"
      ],
      [
        "ad",
        "##m"
      ],
      [
        "r",
        "##el"
      ],
      [
        "s",
        "##ur"
      ],
      [
        "sho",
        "##p</w>"
      ],
      [
        "hop",
        "##e</w>"
      ],
      [
        "o",
        "##c"
      ],
      [
        "hea",
        "##lthy</w>"
      ],
      [
        "pra",
        "##ct"
      ],
      [
        "dis",
        "##t"
      ],
      [
        "clou",
        "##ds</w>"
      ],
      [
        "sh",
        "##ining</w>"
      ],
      [
        "##ra",
        "##ted</w>"
      ],
      [
        "##a",
        "##se</w>"
      ],
      [
        "cu",
        "##p</w>"
      ],
      [
        "fa",
        "##ir</w>"
      ],
      [
        "gi",
        "##ant</w>"
      ],
      [
        "rol",
        "##led</w>"
      ],
      [
        "##b",
        "##r"
      ],
      [
        "b",
        "##ru"
      ],
      [
        "##on",
        "##t</w>"
      ],
      [
        "ro",
        "##ad</w>"
      ],
      [
        "r",
        "##oo"
      ],
      [
        "##f",
        "##l"
      ],
      [
        "sa",
        "##f"
      ],
      [
        "##il",
        "##la"
      ],
      [
        "pla",
        "##ces</w>"
      ],
      [
        "fr",
        "##ont</w>"
      ],
      [
        "Em",
        "##ily</w>"
      ],
      [
        "trou",
        "##ble</w>"
      ],
      [
        "##g",
        "##an"
      ],
      [
        "##l",
        "##eep</w>"
      ],
      [
        "pu",
        "##ts</w>"
      ],
      [
        "wh",
        "##ich</w>"
      ],
      [
        "##re",
        "##e"
      ],
      [
        "##re",
        "##di"
      ],
      [
        "##f",
        "##ted</w>"
      ],
      [
        "lo",
        "##ves</w>"
      ],
      [
        "v",
        "##illa"
      ],
      [
        "##e",
        "##er</w>"
      ],
      [
        "##z",
        "##zy</w>"
      ],
      [
        "spo",
        "##tted</w>"
      ],
      [
        "t",
        "##un"
      ],
      [
        "##an",
        "##ding</w>"
      ],
      [
        "n",
        "##ec"
      ],
      [
        "##b",
        "##ar"
      ],
      [
        "B",
        "##u"
      ],
      [
        "imp",
        "##re"
      ],
      [
        "hel",
        "##p"
      ],
      [
        "m",
        "##yst"
      ],
      [
        "or",
        "##gan"
      ],
      [
        "##g",
        "##le</w>"
      ],
      [
        "##p",
        "##y</w>"
      ],
      [
        "s",
        "##uc"
      ],
      [
        "##b",
        "##les</w>"
      ],
      [
        "fru",
        "##it</w>"
      ],
      [
        "To",
        "##gether</w>"
      ],
      [
        "##e",
        "##o</w>"
      ],
      [
        "ta",
        "##sted</w>"
      ],
      [
        "d",
        "##eli"
      ],
      [
        "be",
        "##e"
      ],
      [
        "cl",
        "##ever</w>"
      ],
      [
        "Tw",
        "##ee"
      ],
      [
        "##ell",
        "##a</w>"
      ],
      [
        "pro",
        "##t"
      ],
      [
        "cou",
        "##ch</w>"
      ],
      [
        "##a",
        "##ts</w>"
      ],
      [
        "sn",
        "##ack</w>"
      ],
      [
        "me",
        "##d"
      ],
      [
        "##a",
[...]
